{
  "version": "1.0",
  "truncation": null,
  "padding": null,
  "added_tokens": [
    {
      "id": 0,
      "content": "<|pad|>",
      "single_word": false,
      "lstrip": false,
      "rstrip": false,
      "normalized": false,
      "special": true
    },
    {
      "id": 1,
      "content": "<|endoftext|>",
      "single_word": false,
      "lstrip": false,
      "rstrip": false,
      "normalized": false,
      "special": true
    },
    {
      "id": 2,
      "content": "<|system|>",
      "single_word": false,
      "lstrip": false,
      "rstrip": false,
      "normalized": false,
      "special": true
    },
    {
      "id": 3,
      "content": "<|user|>",
      "single_word": false,
      "lstrip": false,
      "rstrip": false,
      "normalized": false,
      "special": true
    },
    {
      "id": 4,
      "content": "<|assistant|>",
      "single_word": false,
      "lstrip": false,
      "rstrip": false,
      "normalized": false,
      "special": true
    },
    {
      "id": 5,
      "content": "<|context|>",
      "single_word": false,
      "lstrip": false,
      "rstrip": false,
      "normalized": false,
      "special": true
    },
    {
      "id": 6,
      "content": "<|intent|>",
      "single_word": false,
      "lstrip": false,
      "rstrip": false,
      "normalized": false,
      "special": true
    },
    {
      "id": 7,
      "content": "<|plan|>",
      "single_word": false,
      "lstrip": false,
      "rstrip": false,
      "normalized": false,
      "special": true
    },
    {
      "id": 8,
      "content": "<|tool_call|>",
      "single_word": false,
      "lstrip": false,
      "rstrip": false,
      "normalized": false,
      "special": true
    },
    {
      "id": 9,
      "content": "<|tool_result|>",
      "single_word": false,
      "lstrip": false,
      "rstrip": false,
      "normalized": false,
      "special": true
    },
    {
      "id": 10,
      "content": "<|verify|>",
      "single_word": false,
      "lstrip": false,
      "rstrip": false,
      "normalized": false,
      "special": true
    },
    {
      "id": 11,
      "content": "<|recover|>",
      "single_word": false,
      "lstrip": false,
      "rstrip": false,
      "normalized": false,
      "special": true
    },
    {
      "id": 12,
      "content": "<|no_tool|>",
      "single_word": false,
      "lstrip": false,
      "rstrip": false,
      "normalized": false,
      "special": true
    },
    {
      "id": 13,
      "content": "<|proactive|>",
      "single_word": false,
      "lstrip": false,
      "rstrip": false,
      "normalized": false,
      "special": true
    },
    {
      "id": 14,
      "content": "<|final|>",
      "single_word": false,
      "lstrip": false,
      "rstrip": false,
      "normalized": false,
      "special": true
    },
    {
      "id": 15,
      "content": "<|thought|>",
      "single_word": false,
      "lstrip": false,
      "rstrip": false,
      "normalized": false,
      "special": true
    },
    {
      "id": 16,
      "content": "<|unk|>",
      "single_word": false,
      "lstrip": false,
      "rstrip": false,
      "normalized": false,
      "special": true
    }
  ],
  "normalizer": {
    "type": "Sequence",
    "normalizers": [
      {
        "type": "NFKC"
      }
    ]
  },
  "pre_tokenizer": {
    "type": "Sequence",
    "pretokenizers": [
      {
        "type": "ByteLevel",
        "add_prefix_space": false,
        "trim_offsets": true,
        "use_regex": true
      }
    ]
  },
  "post_processor": null,
  "decoder": {
    "type": "ByteLevel",
    "add_prefix_space": true,
    "trim_offsets": true,
    "use_regex": true
  },
  "model": {
    "type": "BPE",
    "dropout": null,
    "unk_token": "<|unk|>",
    "continuing_subword_prefix": null,
    "end_of_word_suffix": null,
    "fuse_unk": false,
    "byte_fallback": false,
    "ignore_merges": false,
    "vocab": {
      "<|pad|>": 0,
      "<|endoftext|>": 1,
      "<|system|>": 2,
      "<|user|>": 3,
      "<|assistant|>": 4,
      "<|context|>": 5,
      "<|intent|>": 6,
      "<|plan|>": 7,
      "<|tool_call|>": 8,
      "<|tool_result|>": 9,
      "<|verify|>": 10,
      "<|recover|>": 11,
      "<|no_tool|>": 12,
      "<|proactive|>": 13,
      "<|final|>": 14,
      "<|thought|>": 15,
      "<|unk|>": 16,
      "!": 17,
      "\"": 18,
      "#": 19,
      "$": 20,
      "%": 21,
      "&": 22,
      "'": 23,
      "(": 24,
      ")": 25,
      "*": 26,
      "+": 27,
      ",": 28,
      "-": 29,
      ".": 30,
      "/": 31,
      "0": 32,
      "1": 33,
      "2": 34,
      "3": 35,
      "4": 36,
      "5": 37,
      "6": 38,
      "7": 39,
      "8": 40,
      "9": 41,
      ":": 42,
      ";": 43,
      "<": 44,
      "=": 45,
      ">": 46,
      "?": 47,
      "@": 48,
      "A": 49,
      "B": 50,
      "C": 51,
      "D": 52,
      "E": 53,
      "F": 54,
      "G": 55,
      "H": 56,
      "I": 57,
      "J": 58,
      "K": 59,
      "L": 60,
      "M": 61,
      "N": 62,
      "O": 63,
      "P": 64,
      "Q": 65,
      "R": 66,
      "S": 67,
      "T": 68,
      "U": 69,
      "V": 70,
      "W": 71,
      "X": 72,
      "Y": 73,
      "Z": 74,
      "[": 75,
      "\\": 76,
      "]": 77,
      "^": 78,
      "_": 79,
      "`": 80,
      "a": 81,
      "b": 82,
      "c": 83,
      "d": 84,
      "e": 85,
      "f": 86,
      "g": 87,
      "h": 88,
      "i": 89,
      "j": 90,
      "k": 91,
      "l": 92,
      "m": 93,
      "n": 94,
      "o": 95,
      "p": 96,
      "q": 97,
      "r": 98,
      "s": 99,
      "t": 100,
      "u": 101,
      "v": 102,
      "w": 103,
      "x": 104,
      "y": 105,
      "z": 106,
      "{": 107,
      "|": 108,
      "}": 109,
      "~": 110,
      "¡": 111,
      "¢": 112,
      "£": 113,
      "¤": 114,
      "¥": 115,
      "¦": 116,
      "§": 117,
      "¨": 118,
      "©": 119,
      "ª": 120,
      "«": 121,
      "¬": 122,
      "®": 123,
      "¯": 124,
      "°": 125,
      "±": 126,
      "²": 127,
      "³": 128,
      "´": 129,
      "µ": 130,
      "¶": 131,
      "·": 132,
      "¸": 133,
      "¹": 134,
      "º": 135,
      "»": 136,
      "¼": 137,
      "½": 138,
      "¾": 139,
      "¿": 140,
      "À": 141,
      "Á": 142,
      "Â": 143,
      "Ã": 144,
      "Ä": 145,
      "Å": 146,
      "Æ": 147,
      "Ç": 148,
      "È": 149,
      "É": 150,
      "Ê": 151,
      "Ë": 152,
      "Ì": 153,
      "Í": 154,
      "Î": 155,
      "Ï": 156,
      "Ð": 157,
      "Ñ": 158,
      "Ò": 159,
      "Ó": 160,
      "Ô": 161,
      "Õ": 162,
      "Ö": 163,
      "×": 164,
      "Ø": 165,
      "Ù": 166,
      "Ú": 167,
      "Û": 168,
      "Ü": 169,
      "Ý": 170,
      "Þ": 171,
      "ß": 172,
      "à": 173,
      "á": 174,
      "â": 175,
      "ã": 176,
      "ä": 177,
      "å": 178,
      "æ": 179,
      "ç": 180,
      "è": 181,
      "é": 182,
      "ê": 183,
      "ë": 184,
      "ì": 185,
      "í": 186,
      "î": 187,
      "ï": 188,
      "ð": 189,
      "ñ": 190,
      "ò": 191,
      "ó": 192,
      "ô": 193,
      "õ": 194,
      "ö": 195,
      "÷": 196,
      "ø": 197,
      "ù": 198,
      "ú": 199,
      "û": 200,
      "ü": 201,
      "ý": 202,
      "þ": 203,
      "ÿ": 204,
      "Ā": 205,
      "ā": 206,
      "Ă": 207,
      "ă": 208,
      "Ą": 209,
      "ą": 210,
      "Ć": 211,
      "ć": 212,
      "Ĉ": 213,
      "ĉ": 214,
      "Ċ": 215,
      "ċ": 216,
      "Č": 217,
      "č": 218,
      "Ď": 219,
      "ď": 220,
      "Đ": 221,
      "đ": 222,
      "Ē": 223,
      "ē": 224,
      "Ĕ": 225,
      "ĕ": 226,
      "Ė": 227,
      "ė": 228,
      "Ę": 229,
      "ę": 230,
      "Ě": 231,
      "ě": 232,
      "Ĝ": 233,
      "ĝ": 234,
      "Ğ": 235,
      "ğ": 236,
      "Ġ": 237,
      "ġ": 238,
      "Ģ": 239,
      "ģ": 240,
      "Ĥ": 241,
      "ĥ": 242,
      "Ħ": 243,
      "ħ": 244,
      "Ĩ": 245,
      "ĩ": 246,
      "Ī": 247,
      "ī": 248,
      "Ĭ": 249,
      "ĭ": 250,
      "Į": 251,
      "į": 252,
      "İ": 253,
      "ı": 254,
      "Ĳ": 255,
      "ĳ": 256,
      "Ĵ": 257,
      "ĵ": 258,
      "Ķ": 259,
      "ķ": 260,
      "ĸ": 261,
      "Ĺ": 262,
      "ĺ": 263,
      "Ļ": 264,
      "ļ": 265,
      "Ľ": 266,
      "ľ": 267,
      "Ŀ": 268,
      "ŀ": 269,
      "Ł": 270,
      "ł": 271,
      "Ń": 272,
      "à¤": 273,
      "à¥": 274,
      "in": 275,
      "Ġà¤": 276,
      "te": 277,
      "Ġ\"": 278,
      "er": 279,
      "\":": 280,
      "re": 281,
      "an": 282,
      "<|": 283,
      "|>": 284,
      "to": 285,
      "co": 286,
      "ar": 287,
      "nt": 288,
      "ol": 289,
      "Ġs": 290,
      "ti": 291,
      "ro": 292,
      "{\"": 293,
      "le": 294,
      "ss": 295,
      "tool": 296,
      "al": 297,
      "ec": 298,
      "on": 299,
      "ve": 300,
      "à¤°": 301,
      "\",": 302,
      "ing": 303,
      "th": 304,
      "or": 305,
      "Ġan": 306,
      "me": 307,
      "su": 308,
      "is": 309,
      "Ġp": 310,
      "à¤¾": 311,
      "de": 312,
      "à¥ĩ": 313,
      "ce": 314,
      "ver": 315,
      "ser": 316,
      "Ġa": 317,
      "ĠĠ": 318,
      "Ġco": 319,
      "à¤¿": 320,
      "if": 321,
      "ecu": 322,
      "Ġà¤ķ": 323,
      "à¥į": 324,
      "tu": 325,
      "ate": 326,
      "Ġand": 327,
      "Ġin": 328,
      "ge": 329,
      "à¤Ĥ": 330,
      "Ġre": 331,
      "Ġk": 332,
      "tion": 333,
      "verif": 334,
      "Ġe": 335,
      "ou": 336,
      "ac": 337,
      "xecu": 338,
      "ic": 339,
      "xecute": 340,
      "Ġf": 341,
      "Ġw": 342,
      "ta": 343,
      "<|tool": 344,
      "<|tool_": 345,
      "ly": 346,
      "tr": 347,
      "age": 348,
      "tive": 349,
      "qu": 350,
      "ri": 351,
      "se": 352,
      "cess": 353,
      "row": 354,
      "rowser": 355,
      "browser": 356,
      "lt": 357,
      "sult": 358,
      "Ġpro": 359,
      "ccess": 360,
      "à¤ª": 361,
      "Ġh": 362,
      "ste": 363,
      "ul": 364,
      "nts": 365,
      "\"}": 366,
      "tent": 367,
      "mm": 368,
      "à¤¨": 369,
      "Ġkar": 370,
      "it": 371,
      "ding": 372,
      "Ġtool": 373,
      "ĠA": 374,
      "à¤¤": 375,
      "na": 376,
      "gu": 377,
      "Ġth": 378,
      "tru": 379,
      "cal": 380,
      "yste": 381,
      "ystem": 382,
      "verify": 383,
      "à¥Ĥ": 384,
      "tan": 385,
      "ow": 386,
      "inal": 387,
      "ments": 388,
      "Ġexecute": 389,
      "ch": 390,
      "ai": 391,
      "om": 392,
      "agent": 393,
      "argu": 394,
      "arguments": 395,
      "un": 396,
      "result": 397,
      "ary": 398,
      "ton": 399,
      "ssis": 400,
      "à¤Ł": 401,
      "tus": 402,
      "tatus": 403,
      "ssistan": 404,
      "ation": 405,
      "à¤²": 406,
      "ith": 407,
      "à¥ĩà¤Ĥ": 408,
      "Ġthe": 409,
      "en": 410,
      "lan": 411,
      "call": 412,
      "active": 413,
      "Ġà¤ķà¤°": 414,
      "à¥Ģ": 415,
      "ĠE": 416,
      "ssistant": 417,
      "Ġsu": 418,
      "You": 419,
      "Ġwith": 420,
      "ra": 421,
      "Ġà¤ª": 422,
      "name": 423,
      "à¤¯": 424,
      "ile": 425,
      "es": 426,
      "status": 427,
      "à¥Ī": 428,
      "at": 429,
      "ed": 430,
      "vi": 431,
      "uton": 432,
      "utonom": 433,
      "Ġd": 434,
      "Ġà¤¹": 435,
      "à¤ķ": 436,
      "<|verify": 437,
      "Ġsuccess": 438,
      "Ġà¤¸": 439,
      "ire": 440,
      "<|tool_result": 441,
      "<|tool_call": 442,
      "lis": 443,
      "ory": 444,
      "tex": 445,
      "ind": 446,
      "Ġtru": 447,
      "ke": 448,
      "final": 449,
      "intent": 450,
      "<|final": 451,
      "<|intent": 452,
      "Ġtrue": 453,
      "Ġ{\"": 454,
      "ĠH": 455,
      "per": 456,
      "à¥ĭ": 457,
      "à¥¤": 458,
      "Ġbrowser": 459,
      "am": 460,
      "vel": 461,
      "quire": 462,
      "py": 463,
      "ni": 464,
      "Ġc": 465,
      "ĠO": 466,
      "utonomy": 467,
      "Ġo": 468,
      "à¥ģ": 469,
      "Ġkaro": 470,
      "ĠS": 471,
      "lish": 472,
      "Ġfor": 473,
      "ful": 474,
      "code": 475,
      "mmary": 476,
      "quires": 477,
      "con": 478,
      "coding": 479,
      "Ġn": 480,
      "cate": 481,
      "text": 482,
      "user": 483,
      "Ġverif": 484,
      "summary": 485,
      "requires": 486,
      "Ġexecuted": 487,
      "Ġsuccessful": 488,
      "Ġsuccessfully": 489,
      "gory": 490,
      "category": 491,
      "ĠĠĠĠ": 492,
      "à¤®": 493,
      "Ġse": 494,
      "and": 495,
      "lo": 496,
      "file": 497,
      "vo": 498,
      "arch": 499,
      "Nai": 500,
      "Naira": 501,
      "cri": 502,
      "à¤·": 503,
      "level": 504,
      "Ġm": 505,
      "rn": 506,
      "git": 507,
      "autonomy": 508,
      "pt": 509,
      "Ġb": 510,
      "ain": 511,
      "plan": 512,
      "success": 513,
      "<|plan": 514,
      "Ġ2": 515,
      "sp": 516,
      "à¤µ": 517,
      "à¤¸": 518,
      "cript": 519,
      "Ġ(": 520,
      "ort": 521,
      "Ġare": 522,
      "system": 523,
      "ĠExecute": 524,
      "Ġcon": 525,
      "00": 526,
      "low": 527,
      "ied": 528,
      "ers": 529,
      "ick": 530,
      "ĠNaira": 531,
      "arr": 532,
      "Ġcomm": 533,
      "ating": 534,
      "vide": 535,
      "ion": 536,
      "ture": 537,
      "Ġ3": 538,
      "Ġqu": 539,
      "à¤¦": 540,
      "gni": 541,
      "ĠAssistant": 542,
      "voke": 543,
      "ication": 544,
      "Ġcoding": 545,
      "perating": 546,
      "ĠAI": 547,
      "Ġprovide": 548,
      "ect": 549,
      "Ġ1": 550,
      "ya": 551,
      "ĠSystem": 552,
      "ĠOperating": 553,
      "rs": 554,
      "Ġproactive": 555,
      "ple": 556,
      "Ġwh": 557,
      "To": 558,
      "ĠYou": 559,
      "context": 560,
      "assistant": 561,
      "<|user": 562,
      "<|system": 563,
      "<|assistant": 564,
      "rite": 565,
      "Ġsecu": 566,
      "Ġ200": 567,
      "Tool": 568,
      "Ġto": 569,
      "ad": 570,
      "à¤£": 571,
      "indow": 572,
      "sort": 573,
      "search": 574,
      "icksort": 575,
      "\"}}": 576,
      "Ġquicksort": 577,
      "turn": 578,
      "lear": 579,
      "ave": 580,
      "truc": 581,
      "Ġreturn": 582,
      "à¤¶": 583,
      "ng": 584,
      "ĠĠĠ": 585,
      "write": 586,
      "Ġà¤¨": 587,
      "erro": 588,
      "window": 589,
      "ĠF": 590,
      "pp": 591,
      "et": 592,
      "}}": 593,
      "Ġerro": 594,
      "ess": 595,
      "ut": 596,
      "Ġà¤®": 597,
      "Ġverify": 598,
      "tor": 599,
      "very": 600,
      "tructure": 601,
      "ance": 602,
      "Ġerrors": 603,
      "Ġad": 604,
      "ur": 605,
      "ĠEng": 606,
      "à¤Ĺ": 607,
      "sw": 608,
      "icate": 609,
      "Ġhai": 610,
      "Ġstructure": 611,
      "Ġv": 612,
      "andle": 613,
      "col": 614,
      "tocol": 615,
      "iya": 616,
      "top": 617,
      "less": 618,
      "Ġreco": 619,
      "ample": 620,
      "Ġform": 621,
      "Ġwhen": 622,
      "gnitive": 623,
      "Ġresult": 624,
      "Ġcognitive": 625,
      "Ġclear": 626,
      "Ġhandle": 627,
      "inglish": 628,
      "Ġprotocol": 629,
      "indi": 630,
      "ĠHinglish": 631,
      "ĠHindi": 632,
      "Ġcommun": 633,
      "ĠEnglish": 634,
      "ulate": 635,
      "spect": 636,
      "Ġinspect": 637,
      "Ġplan": 638,
      "Ġfinal": 639,
      "Ġresults": 640,
      "sample": 641,
      "ollow": 642,
      "Des": 643,
      "ecess": 644,
      "Ġstructured": 645,
      "ecessary": 646,
      "vance": 647,
      "Ġsecure": 648,
      "Ġrecovery": 649,
      "Ġtools": 650,
      "Ġnecessary": 651,
      "Ġadvance": 652,
      "Ġintent": 653,
      "à¥Īà¤Ĥ": 654,
      "Ġverification": 655,
      "amless": 656,
      "Ġverified": 657,
      "Ġseamless": 658,
      "Ġcommunicate": 659,
      "Ġadvanced": 660,
      "ĠFollow": 661,
      "Ġformulate": 662,
      "Ġseamlessly": 663,
      "ktop": 664,
      "Ġansw": 665,
      "Ġinvoke": 666,
      "Desktop": 667,
      "Ġanswers": 668,
      "à¤ªà¤°": 669,
      "Ġac": 670,
      "st": 671,
      "ĠV": 672,
      "pa": 673,
      "def": 674,
      "Ġà¤ľ": 675,
      "Ġ[": 676,
      "Ġà¤Ł": 677,
      "cre": 678,
      "Ġà¤ĳ": 679,
      "à¤¶à¤¨": 680,
      "ty": 681,
      "à¥Īà¥¤": 682,
      "Ġà¤ĳà¤ªà¤°": 683,
      "Ġg": 684,
      "id": 685,
      "ous": 686,
      "Ġme": 687,
      "à¤ļ": 688,
      "gh": 689,
      "Ġarguments": 690,
      "Ġpc": 691,
      "action": 692,
      "Ġr": 693,
      "wa": 694,
      "ision": 695,
      "Ġke": 696,
      "od": 697,
      "li": 698,
      "results": 699,
      "script": 700,
      "):": 701,
      "]}": 702,
      "Ġà¤¦": 703,
      "Ġis": 704,
      "for": 705,
      "Ġscript": 706,
      "path": 707,
      "Ġarr": 708,
      "ity": 709,
      "à¤ľ": 710,
      "Ġà¤ī": 711,
      "pc": 712,
      "Ġà¤Ķ": 713,
      "ter": 714,
      "Ġà¤Ķà¤°": 715,
      "as": 716,
      "Ġi": 717,
      "ĊĠĠĠĠ": 718,
      "ack": 719,
      "In": 720,
      "omain": 721,
      "creen": 722,
      "Ġrun": 723,
      "tab": 724,
      "thon": 725,
      "ĠC": 726,
      "Ġsni": 727,
      "ppet": 728,
      "Ġsnippet": 729,
      "tone": 730,
      "à¤Ĩ": 731,
      "pro": 732,
      "Ġde": 733,
      "la": 734,
      "à¤¡": 735,
      "Ġaur": 736,
      "ct": 737,
      "ĠL": 738,
      "Ġcont": 739,
      "peration": 740,
      "ma": 741,
      "up": 742,
      "ard": 743,
      "Ġà¤ĩ": 744,
      "à¥ĩà¤Ĥà¥¤": 745,
      "Ġà¤ªà¤°": 746,
      "ght": 747,
      "put": 748,
      "Ġof": 749,
      "Ġsystem": 750,
      "Ġho": 751,
      "il": 752,
      "Ġoperation": 753,
      "Ġà¤¸à¤": 754,
      "rity": 755,
      "ware": 756,
      "ha": 757,
      "ork": 758,
      "form": 759,
      "ified": 760,
      "he": 761,
      "us": 762,
      "load": 763,
      "Ġsa": 764,
      "Ġstatus": 765,
      "ode": 766,
      "time": 767,
      "Ġne": 768,
      "ulti": 769,
      "ir": 770,
      "iz": 771,
      "à¤ģ": 772,
      "Ġst": 773,
      "Ġsave": 774,
      "Main": 775,
      "oc": 776,
      "Ġ[\"": 777,
      "nd": 778,
      "Ġgit": 779,
      "odified": 780,
      "Ġà¤²": 781,
      "pe": 782,
      "rol": 783,
      "à¤¥": 784,
      "Ġà¤īà¤ª": 785,
      "ĠP": 786,
      "ded": 787,
      "Ġkarna": 788,
      "pen": 789,
      "à¤²à¤¤": 790,
      "spon": 791,
      "torage": 792,
      "ap": 793,
      "ĊĠĠĠ": 794,
      "Ġà¤µ": 795,
      "Ġà¤īà¤ªà¤¯": 796,
      "no": 797,
      "ify": 798,
      "content": 799,
      "Ġà¤Ĺ": 800,
      "roun": 801,
      "alid": 802,
      "out": 803,
      "ery": 804,
      "Ġrespon": 805,
      "erform": 806,
      "Ġlo": 807,
      "ue": 808,
      "Ġuser": 809,
      "ally": 810,
      "screen": 811,
      "Ġhave": 812,
      "python": 813,
      "Ġcommand": 814,
      "Ġcall": 815,
      "Ġà¤ħ": 816,
      "Ġkiya": 817,
      "Ġdiya": 818,
      "Ġresponse": 819,
      "Ġvision": 820,
      "Ġà¤ĩà¤¨": 821,
      "tern": 822,
      "vents": 823,
      "max": 824,
      "Maine": 825,
      "alidate": 826,
      "Ġà¤¸à¤«": 827,
      "Ġà¤ĩà¤¨à¤ª": 828,
      "be": 829,
      "Ġ0": 830,
      "sele": 831,
      "à¤µà¤ķ": 832,
      "Ġà¤¸à¤«à¤²à¤¤": 833,
      "ies": 834,
      "ĠTool": 835,
      "à¤¹": 836,
      "à¤¾à¤ģ": 837,
      "ble": 838,
      "ine": 839,
      "ĠOut": 840,
      "Ġactive": 841,
      "Perform": 842,
      "inu": 843,
      "ĠVer": 844,
      "ĠLe": 845,
      ".\"}}": 846,
      "ĠValidate": 847,
      "Invoke": 848,
      "ĠOutput": 849,
      "ĠVerify": 850,
      "Ġwork": 851,
      "ĠT": 852,
      "cw": 853,
      "mp": 854,
      "Ġal": 855,
      "Ġch": 856,
      "cwd": 857,
      "dent": 858,
      "fe": 859,
      "Ġfile": 860,
      "ĠLevel": 861,
      "query": 862,
      "Ġob": 863,
      "lows": 864,
      "ice": 865,
      "storage": 866,
      "Ġ'": 867,
      "\"]}": 868,
      "ross": 869,
      "à¤ı": 870,
      "Ġstate": 871,
      "Multi": 872,
      "ssion": 873,
      "ĠD": 874,
      "Ġreas": 875,
      "Ġreason": 876,
      "),": 877,
      "Ġ\".\"}}": 878,
      "voice": 879,
      "Ġda": 880,
      "mory": 881,
      "Ġon": 882,
      "Ġreasoning": 883,
      "aware": 884,
      "ctor": 885,
      "our": 886,
      "step": 887,
      "User": 888,
      "gnition": 889,
      "Ġacross": 890,
      "modified": 891,
      "scode": 892,
      "Ġ{": 893,
      "cognition": 894,
      "\"}]}": 895,
      "key": 896,
      "Ġ[{\"": 897,
      "):\\": 898,
      "get": 899,
      "Ġworkf": 900,
      "serve": 901,
      "ail": 902,
      "own": 903,
      "attern": 904,
      "Ġit": 905,
      "ment": 906,
      "ously": 907,
      "Ġ4": 908,
      "Ġcontext": 909,
      "Ġfal": 910,
      "Ġworkflows": 911,
      "Ġor": 912,
      "Ġevents": 913,
      "set": 914,
      "Ġident": 915,
      "selector": 916,
      "cl": 917,
      "ĠR": 918,
      "tand": 919,
      "ase": 920,
      "Ġl": 921,
      "Ġfalse": 922,
      "Ġsafe": 923,
      "vision": 924,
      "tic": 925,
      "Ġdomain": 926,
      "Ġcontinu": 927,
      "Ġà¤Ĩ": 928,
      "Ġautonom": 929,
      "Ġsearch": 930,
      "à¤¬": 931,
      "textu": 932,
      "Ġcontextu": 933,
      "Ġobserve": 934,
      "eck": 935,
      "Ġex": 936,
      "ought": 937,
      "vior": 938,
      "havior": 939,
      "Ġautonomous": 940,
      "ne": 941,
      "ub": 942,
      "ĠN": 943,
      "tect": 944,
      "Ġgroun": 945,
      "eb": 946,
      "unt": 947,
      "<|th": 948,
      "ĠAutonomy": 949,
      "Ġcontinuously": 950,
      "ought|>": 951,
      "Ġgrounded": 952,
      "pattern": 953,
      "Ġtone": 954,
      "Ġà¤¬": 955,
      "Ġassistan": 956,
      "proactive": 957,
      "behavior": 958,
      "ĠLevels": 959,
      "Ġcontextually": 960,
      "Ġassistance": 961,
      "ject": 962,
      "der": 963,
      "Ġconf": 964,
      "ted": 965,
      "Ġau": 966,
      "Ġ&": 967,
      "à¤¿à¤Ĥ": 968,
      "ans": 969,
      "Ġinto": 970,
      "Ġas": 971,
      "Ġthat": 972,
      "Ġidentity": 973,
      "Ġsecurity": 974,
      "domain": 975,
      "bo": 976,
      "mail": 977,
      "ntrol": 978,
      "ok": 979,
      "ts": 980,
      "ting": 981,
      "timeout": 982,
      "Ġtr": 983,
      "read": 984,
      "à¤ķà¤°": 985,
      "ite": 986,
      "nc": 987,
      "Ġvi": 988,
      "tif": 989,
      "tions": 990,
      "ent": 991,
      "Ġà¤ı": 992,
      "Ġà¤ĸ": 993,
      "Ġli": 994,
      "à¤§": 995,
      "ces": 996,
      "ill": 997,
      "di": 998,
      "po": 999,
      "ĠM": 1000,
      "Ġ`": 1001,
      "control": 1002,
      "Ġun": 1003,
      "au": 1004,
      "sk": 1005,
      "detect": 1006,
      "local": 1007,
      "ho": 1008,
      "act": 1009,
      ").": 1010,
      "Ġà¤°": 1011,
      "im": 1012,
      "list": 1013,
      "mb": 1014,
      "Ġconfir": 1015,
      "si": 1016,
      "Ġen": 1017,
      "à¥ĭà¤Ĥ": 1018,
      "Ġby": 1019,
      "Ġvscode": 1020,
      "^^": 1021,
      "ff": 1022,
      "Ġj": 1023,
      "à¤¼": 1024,
      "ĠĠĠĠĠĠĠĠ": 1025,
      "save": 1026,
      "ys": 1027,
      "Ġdis": 1028,
      "ize": 1029,
      "Ġpre": 1030,
      "Ġcode": 1031,
      "okies": 1032,
      "Ġy": 1033,
      "ithub": 1034,
      "board": 1035,
      "ĠB": 1036,
      "ĊĠĠĠĠĠĠĠ": 1037,
      "ecurity": 1038,
      "Ġhain": 1039,
      "apture": 1040,
      "Ġdata": 1041,
      "ownload": 1042,
      "à¤¾à¤Ĥ": 1043,
      "ouse": 1044,
      "Ġauto": 1045,
      "count": 1046,
      "click": 1047,
      "app": 1048,
      "Ġpar": 1049,
      "create": 1050,
      "ĊĠĠĠĠĠ": 1051,
      "ource": 1052,
      "à¤ĸ": 1053,
      "ft": 1054,
      "ye": 1055,
      "session": 1056,
      "Ġmemory": 1057,
      "ex": 1058,
      "ĊĠ": 1059,
      "vers": 1060,
      "teg": 1061,
      "cookies": 1062,
      "ord": 1063,
      "à¤µà¤°": 1064,
      "mo": 1065,
      "mation": 1066,
      "vent": 1067,
      "Ġ}": 1068,
      "Ġà¤Ĩà¤ª": 1069,
      "ning": 1070,
      "type": 1071,
      "igh": 1072,
      "à¥ī": 1073,
      "Ġemail": 1074,
      "clear": 1075,
      "capture": 1076,
      "ption": 1077,
      "security": 1078,
      "Ġvoice": 1079,
      "à¤°à¤ķ": 1080,
      "Ġà¤ķà¤°à¤¨": 1081,
      "ration": 1082,
      "Ġà¤¤": 1083,
      "ated": 1084,
      "task": 1085,
      "Ġbu": 1086,
      "etch": 1087,
      "Ġvia": 1088,
      "ale": 1089,
      "ĠI": 1090,
      "Ġu": 1091,
      "ĠIn": 1092,
      "com": 1093,
      "Ġapp": 1094,
      "Ġcomp": 1095,
      "line": 1096,
      "pre": 1097,
      "guage": 1098,
      "lication": 1099,
      "port": 1100,
      "Ġsh": 1101,
      "ĠOS": 1102,
      "execute": 1103,
      "Ġte": 1104,
      "unch": 1105,
      "Ġback": 1106,
      "ndar": 1107,
      "ques": 1108,
      "Ġkarke": 1109,
      "Ġà¤Ĩà¤ªà¤ķ": 1110,
      "ython": 1111,
      "Ġ-": 1112,
      "ĠW": 1113,
      "language": 1114,
      "rom": 1115,
      "Ġka": 1116,
      "Ġbe": 1117,
      "Ġup": 1118,
      "und": 1119,
      "tegration": 1120,
      "ger": 1121,
      "ipe": 1122,
      "ĠK": 1123,
      "comm": 1124,
      "ical": 1125,
      "Ġopen": 1126,
      "urre": 1127,
      "Ġlog": 1128,
      "ute": 1129,
      "Ġ5": 1130,
      "Ġà¤¡": 1131,
      "tical": 1132,
      "source": 1133,
      "tric": 1134,
      "à¤Ń": 1135,
      "Ġpo": 1136,
      "loc": 1137,
      "Ġlocal": 1138,
      "Ġcheck": 1139,
      "Ġtrans": 1140,
      "du": 1141,
      "word": 1142,
      "à¤ĩ": 1143,
      "ach": 1144,
      "Ġà¤ħà¤¨": 1145,
      "Ġà¤ıà¤ķ": 1146,
      "ph": 1147,
      "tar": 1148,
      "older": 1149,
      "Ġkey": 1150,
      "tification": 1151,
      "val": 1152,
      "Ġra": 1153,
      "Ġpri": 1154,
      "Ġfrom": 1155,
      "Ġweb": 1156,
      "ncy": 1157,
      "ree": 1158,
      "Ġga": 1159,
      "lay": 1160,
      "Ġ45": 1161,
      "alendar": 1162,
      "gge": 1163,
      "Ġover": 1164,
      "etw": 1165,
      "Ġà¤īà¤¸": 1166,
      "Se": 1167,
      "ab": 1168,
      "ĠG": 1169,
      "Ġscreen": 1170,
      "erstand": 1171,
      "back": 1172,
      "ot": 1173,
      "Ġà¤ļ": 1174,
      "nth": 1175,
      "aly": 1176,
      "Ġmo": 1177,
      "Ġgaya": 1178,
      "ew": 1179,
      "mple": 1180,
      "sc": 1181,
      "ze": 1182,
      "~~": 1183,
      "ĠU": 1184,
      "Ġhigh": 1185,
      "end": 1186,
      "Ġman": 1187,
      "Ġgithub": 1188,
      "ive": 1189,
      "Ġ=": 1190,
      "ates": 1191,
      "hi": 1192,
      "ig": 1193,
      "dra": 1194,
      "ackage": 1195,
      "round": 1196,
      "Web": 1197,
      "ction": 1198,
      "Ġat": 1199,
      "nable": 1200,
      "ocus": 1201,
      "fer": 1202,
      "Ġtime": 1203,
      "gent": 1204,
      "ache": 1205,
      "Ġdire": 1206,
      "tabase": 1207,
      "ground": 1208,
      "ob": 1209,
      "open": 1210,
      "run": 1211,
      "sol": 1212,
      "all": 1213,
      "tri": 1214,
      "Ġà¤ķà¤°à¤¤": 1215,
      "urrent": 1216,
      "Ġz": 1217,
      "Ġà¤Ń": 1218,
      "cent": 1219,
      "ower": 1220,
      "à¤Łà¤®": 1221,
      "tings": 1222,
      "alyze": 1223,
      "``": 1224,
      "bu": 1225,
      "ds": 1226,
      "man": 1227,
      "med": 1228,
      "Ġpa": 1229,
      "Ġpython": 1230,
      "Ġinter": 1231,
      "Ġfetch": 1232,
      "Ġprocess": 1233,
      "project": 1234,
      "version": 1235,
      "understand": 1236,
      "mi": 1237,
      "oth": 1238,
      "pri": 1239,
      "à¤Ī": 1240,
      "Ġser": 1241,
      "à¤¯à¤°": 1242,
      "Ġ12": 1243,
      "Ġrequire": 1244,
      "Ġdi": 1245,
      "Ġmulti": 1246,
      "Ġmodified": 1247,
      "Search": 1248,
      "memory": 1249,
      "à¥ĩà¤Ĥ,": 1250,
      "Ġsub": 1251,
      "Ġsaved": 1252,
      "ĠPro": 1253,
      "item": 1254,
      "Ġja": 1255,
      "Code": 1256,
      "og": 1257,
      "oft": 1258,
      "vscode": 1259,
      "Ġdef": 1260,
      "ise": 1261,
      "Ġhe": 1262,
      "Ġwhile": 1263,
      "à¤ľà¤ķà¤°": 1264,
      "Ġ{}}": 1265,
      "Ġliya": 1266,
      "Ġsearched": 1267,
      "new": 1268,
      "mber": 1269,
      "Ġconfirmed": 1270,
      "ipeline": 1271,
      "ggest": 1272,
      "dit": 1273,
      "fa": 1274,
      "mic": 1275,
      "Ġà¤¯": 1276,
      "oun": 1277,
      "image": 1278,
      "target": 1279,
      "Ġma": 1280,
      "ĊĠĠĠĠĠĠĠĠĠĠĠĠ": 1281,
      "Ġcontrol": 1282,
      "ized": 1283,
      "^^^^": 1284,
      "lock": 1285,
      "nabled": 1286,
      "enabled": 1287,
      "mouse": 1288,
      "package": 1289,
      "int": 1290,
      "one": 1291,
      "ull": 1292,
      "ence": 1293,
      "ĠThe": 1294,
      "Ġconfirmation": 1295,
      "quest": 1296,
      "Ġpriv": 1297,
      "able": 1298,
      "download": 1299,
      "à¥Į": 1300,
      "repo": 1301,
      "itch": 1302,
      "Ġset": 1303,
      "à¤Ĩà¤ª": 1304,
      "tandard": 1305,
      "Ġyour": 1306,
      "oftware": 1307,
      "\"]": 1308,
      "PU": 1309,
      "gra": 1310,
      "min": 1311,
      "Ġread": 1312,
      "Ġexecu": 1313,
      "Ġmod": 1314,
      "à¤ķà¤°à¤£": 1315,
      "by": 1316,
      "date": 1317,
      "struc": 1318,
      "Ġà¤¶": 1319,
      "tim": 1320,
      "ron": 1321,
      "Ġfiles": 1322,
      "ef": 1323,
      "scri": 1324,
      "sho": 1325,
      "Ġtab": 1326,
      "inter": 1327,
      "ero": 1328,
      "olu": 1329,
      "ority": 1330,
      "acy": 1331,
      "sts": 1332,
      "launch": 1333,
      "Ġdatabase": 1334,
      "Ġparser": 1335,
      "etwork": 1336,
      "mission": 1337,
      "gor": 1338,
      "iss": 1339,
      "play": 1340,
      "str": 1341,
      "à¤«": 1342,
      "Ġcalendar": 1343,
      "Ġno": 1344,
      "Ġmouse": 1345,
      "Ġall": 1346,
      "ĠRe": 1347,
      "itec": 1348,
      "ee": 1349,
      "gate": 1350,
      "ix": 1351,
      "lic": 1352,
      "Ġarch": 1353,
      "medi": 1354,
      "à¥Īà¤Ĥà¥¤": 1355,
      "stall": 1356,
      "lass": 1357,
      "nel": 1358,
      "jects": 1359,
      "Ġuse": 1360,
      "TT": 1361,
      "WS": 1362,
      "bl": 1363,
      "ner": 1364,
      "ĠJ": 1365,
      "Ġt": 1366,
      "tes": 1367,
      "sent": 1368,
      "ĠAWS": 1369,
      "Ġconc": 1370,
      "Ġexp": 1371,
      "Ġautom": 1372,
      "Ġmanage": 1373,
      "ounded": 1374,
      "mit": 1375,
      "tle": 1376,
      "ward": 1377,
      "Ġle": 1378,
      "ines": 1379,
      "integration": 1380,
      "ress": 1381,
      "tur": 1382,
      "Ġdo": 1383,
      "state": 1384,
      "ush": 1385,
      "ocu": 1386,
      "Ġapplication": 1387,
      "trict": 1388,
      "sole": 1389,
      "priority": 1390,
      "Ġprivacy": 1391,
      "dnd": 1392,
      "um": 1393,
      "ere": 1394,
      "ange": 1395,
      "aring": 1396,
      "olic": 1397,
      "Ġstandard": 1398,
      "Ġagent": 1399,
      "Ġcomple": 1400,
      "Ġkya": 1401,
      "Ġhas": 1402,
      "Ġà¤¸à¤®": 1403,
      "Ġbin": 1404,
      "hare": 1405,
      "Ġzero": 1406,
      "gorith": 1407,
      "mediate": 1408,
      "integrations": 1409,
      "DF": 1410,
      "ll": 1411,
      "ry": 1412,
      "Ġko": 1413,
      "ffers": 1414,
      "Ġyou": 1415,
      "pipeline": 1416,
      "cor": 1417,
      "ich": 1418,
      "Ġfull": 1419,
      "à¤ªà¤¨": 1420,
      "typ": 1421,
      "Ġim": 1422,
      "ility": 1423,
      "Ġalgorith": 1424,
      "ag": 1425,
      "ime": 1426,
      "sy": 1427,
      "res": 1428,
      "tiv": 1429,
      "les": 1430,
      "que": 1431,
      "à¥Ī,": 1432,
      "Ġcurrent": 1433,
      "lose": 1434,
      "keyboard": 1435,
      "Ġliye": 1436,
      "move": 1437,
      "Ġarchitec": 1438,
      "TTP": 1439,
      "folder": 1440,
      "focus": 1441,
      "iti": 1442,
      "ms": 1443,
      "Ġversion": 1444,
      "analyze": 1445,
      "suggest": 1446,
      "wake": 1447,
      "notification": 1448,
      "screensho": 1449,
      "tify": 1450,
      "illing": 1451,
      "coming": 1452,
      "command": 1453,
      "missions": 1454,
      "olicy": 1455,
      "email": 1456,
      "github": 1457,
      "ifi": 1458,
      "sted": 1459,
      "à¤®à¤¤": 1460,
      "à¤ľà¤¨": 1461,
      "ĊĠĠĠĠĠĠĠĠ": 1462,
      "ization": 1463,
      "à¤ıà¤¸": 1464,
      "clu": 1465,
      "'s": 1466,
      "à¤ī": 1467,
      "Ġà¤ĵ": 1468,
      "Ġsy": 1469,
      "trans": 1470,
      "Ġnetwork": 1471,
      "Ġmode": 1472,
      "Ġensu": 1473,
      "nthes": 1474,
      "faces": 1475,
      "tivity": 1476,
      "Aap": 1477,
      "ak": 1478,
      "base": 1479,
      "hen": 1480,
      "ial": 1481,
      "ptim": 1482,
      "Ġro": 1483,
      "ties": 1484,
      "à¤°à¤¤": 1485,
      "navi": 1486,
      "à¥Ĥà¤ģ": 1487,
      "ĠHTTP": 1488,
      "lip": 1489,
      "Ġsak": 1490,
      "Ġsharing": 1491,
      "value": 1492,
      "Ġdirect": 1493,
      "js": 1494,
      "volu": 1495,
      "ernel": 1496,
      "Ġstorage": 1497,
      "ingle": 1498,
      "Ġper": 1499,
      "tract": 1500,
      "right": 1501,
      "Ġcan": 1502,
      "Ġmy": 1503,
      "uring": 1504,
      "ĠCon": 1505,
      "ĠCPU": 1506,
      "process": 1507,
      "Ġhota": 1508,
      "Ġoperations": 1509,
      "Ġbackground": 1510,
      "commit": 1511,
      "fact": 1512,
      "rop": 1513,
      "Ġpage": 1514,
      "Ġinde": 1515,
      "Ġeng": 1516,
      "atch": 1517,
      "vice": 1518,
      "Ġdown": 1519,
      "Ġca": 1520,
      "filesystem": 1521,
      "Ġmin": 1522,
      "Ġwhich": 1523,
      "roll": 1524,
      "Ġ},": 1525,
      "ocuments": 1526,
      "navigate": 1527,
      "ST": 1528,
      "bal": 1529,
      "ip": 1530,
      "lf": 1531,
      "ore": 1532,
      "power": 1533,
      "size": 1534,
      "à¥ĩ,": 1535,
      "Ġkernel": 1536,
      "Ġthan": 1537,
      "check": 1538,
      "conds": 1539,
      "select": 1540,
      "ills": 1541,
      "The": 1542,
      "df": 1543,
      "dis": 1544,
      "doc": 1545,
      "event": 1546,
      "mode": 1547,
      "par": 1548,
      "stand": 1549,
      "old": 1550,
      "title": 1551,
      "ssage": 1552,
      "member": 1553,
      "activity": 1554,
      "rief": 1555,
      "Ġdownload": 1556,
      "Ġrunning": 1557,
      "draft": 1558,
      "Ġrequired": 1559,
      "nthesize": 1560,
      "Autonomy": 1561,
      "bounded": 1562,
      "da": 1563,
      "fill": 1564,
      "gan": 1565,
      "minal": 1566,
      "nec": 1567,
      "à¥ĥ": 1568,
      "ters": 1569,
      "report": 1570,
      "tooth": 1571,
      "à¤°à¤£": 1572,
      "Ġintegration": 1573,
      "Ġà¤¸à¤ķ": 1574,
      "Ġclass": 1575,
      "Ġoptim": 1576,
      "cribe": 1577,
      "Ġmain": 1578,
      "à¥Īà¤Ĥ?": 1579,
      "way": 1580,
      "wait": 1581,
      "lient": 1582,
      "Ġdele": 1583,
      "uetooth": 1584,
      "Ġà¤°à¤¹": 1585,
      "export": 1586,
      "press": 1587,
      "ĠProvide": 1588,
      "scription": 1589,
      "clude": 1590,
      "lipboard": 1591,
      "docx": 1592,
      "standby": 1593,
      "ight": 1594,
      "ps": 1595,
      "ugh": 1596,
      "Ġsch": 1597,
      "rough": 1598,
      "Ġpe": 1599,
      "tain": 1600,
      "Ġkarte": 1601,
      "Ġkarta": 1602,
      "ations": 1603,
      "Ġwithin": 1604,
      "Ġwithout": 1605,
      "Ġcache": 1606,
      "Ġnode": 1607,
      "log": 1608,
      "add": 1609,
      "Ġactions": 1610,
      "ĠCo": 1611,
      "using": 1612,
      "cord": 1613,
      ");": 1614,
      "02": 1615,
      "gn": 1616,
      "ream": 1617,
      "Ġshare": 1618,
      "ssword": 1619,
      "such": 1620,
      "Ġag": 1621,
      "tual": 1622,
      "Ġreg": 1623,
      "Ġwindow": 1624,
      "tation": 1625,
      "ket": 1626,
      "Ġque": 1627,
      "ause": 1628,
      "Ġupdate": 1629,
      "ews": 1630,
      "Ġà¤ĵà¤ıà¤¸": 1631,
      "Ġensure": 1632,
      "Ġsakti": 1633,
      "volume": 1634,
      "ame": 1635,
      "ili": 1636,
      "ness": 1637,
      "push": 1638,
      "ui": 1639,
      "ving": 1640,
      "Ġge": 1641,
      "Ġtyp": 1642,
      "Ġsingle": 1643,
      "the": 1644,
      "Ġcol": 1645,
      "ound": 1646,
      "Ġfun": 1647,
      "Ġwrite": 1648,
      "send": 1649,
      "ilent": 1650,
      "Ġdan": 1651,
      "error": 1652,
      "forward": 1653,
      "settings": 1654,
      "application": 1655,
      "scan": 1656,
      "objects": 1657,
      "tribu": 1658,
      "Ġarchitecture": 1659,
      "08": 1660,
      "ci": 1661,
      "close": 1662,
      "clipboard": 1663,
      "drop": 1664,
      "events": 1665,
      "option": 1666,
      "policy": 1667,
      "pdf": 1668,
      "software": 1669,
      "uth": 1670,
      "wifi": 1671,
      "xed": 1672,
      "Ġtask": 1673,
      "install": 1674,
      "Ġà¤«": 1675,
      "reload": 1676,
      "recent": 1677,
      "record": 1678,
      "costs": 1679,
      "Ġsp": 1680,
      "Ġstrict": 1681,
      "led": 1682,
      "ther": 1683,
      "orning": 1684,
      "Ġevent": 1685,
      "account": 1686,
      "icro": 1687,
      "seconds": 1688,
      "unread": 1689,
      "edit": 1690,
      "permissions": 1691,
      "lobal": 1692,
      "à¤¸à¤®": 1693,
      "url": 1694,
      "switch": 1695,
      "tabs": 1696,
      "upload": 1697,
      "upcoming": 1698,
      "Ġhoon": 1699,
      "ocr": 1700,
      "potify": 1701,
      "ĠMe": 1702,
      "audit": 1703,
      "skills": 1704,
      "hover": 1705,
      "extract": 1706,
      "uncheck": 1707,
      "Ġ450": 1708,
      "scroll": 1709,
      "~~~~": 1710,
      "drag": 1711,
      "```": 1712,
      "repos": 1713,
      "Ġsettings": 1714,
      "issue": 1715,
      "bluetooth": 1716,
      "Ġautomated": 1717,
      "synthesize": 1718,
      "screenshot": 1719,
      "transcribe": 1720,
      "display": 1721,
      "Ġdanger": 1722,
      "el": 1723,
      "Ġar": 1724,
      "Ġif": 1725,
      "ten": 1726,
      "ern": 1727,
      "orm": 1728,
      "à¤Łà¤°": 1729,
      "Ġduring": 1730,
      "conf": 1731,
      "Ġerror": 1732,
      "idle": 1733,
      "ternal": 1734,
      "Ġasy": 1735,
      "sign": 1736,
      "Ġpresent": 1737,
      "Ġimmediate": 1738,
      "Ġdangerous": 1739,
      "ide": 1740,
      "irs": 1741,
      "op": 1742,
      "âĢ": 1743,
      "Ġ<": 1744,
      "à¤¯à¤ķ": 1745,
      "Ġcre": 1746,
      "ĠSu": 1747,
      "ild": 1748,
      "Ġlike": 1749,
      "Ġdistribu": 1750,
      "Ġcompu": 1751,
      "tically": 1752,
      "\"]}}": 1753,
      "Ġapplications": 1754,
      "ĊĠĠĠĠĠĠĠĠĠĠĠ": 1755,
      "irst": 1756,
      "âĢĶ": 1757,
      "Wh": 1758,
      "ative": 1759,
      "ey": 1760,
      "igu": 1761,
      "sis": 1762,
      "tt": 1763,
      "red": 1764,
      "Ġstr": 1765,
      "atency": 1766,
      "Ġki": 1767,
      "Ġfail": 1768,
      "qui": 1769,
      "ular": 1770,
      "Ġthrough": 1771,
      "Ġtheir": 1772,
      "Ġclient": 1773,
      "Ġmu": 1774,
      "Ġquery": 1775,
      "Ġvec": 1776,
      "force": 1777,
      "ĠCode": 1778,
      "Ġdesign": 1779,
      "untime": 1780,
      "ĠWhen": 1781,
      "Ġnotification": 1782,
      "licit": 1783,
      "Ġalgorithm": 1784,
      "Ġimmediately": 1785,
      "System": 1786,
      "em": 1787,
      "fetch": 1788,
      "tter": 1789,
      "Ġsc": 1790,
      "letter": 1791,
      "isk": 1792,
      "Ġiniti": 1793,
      "try": 1794,
      "à¤¤à¤°": 1795,
      "night": 1796,
      "ĠSpotify": 1797,
      "Ġmute": 1798,
      "Ġblock": 1799,
      "Ġconnec": 1800,
      "Ġwhere": 1801,
      "Ġcontain": 1802,
      "ĠNews": 1803,
      "saved": 1804,
      "Ġkeyboard": 1805,
      "Ġpresentation": 1806,
      "ĠNewsletter": 1807,
      "--": 1808,
      "SS": 1809,
      "ading": 1810,
      "cu": 1811,
      "os": 1812,
      "pto": 1813,
      "ran": 1814,
      "Ġusing": 1815,
      "Ġph": 1816,
      "description": 1817,
      "Ġrequest": 1818,
      "Ġfra": 1819,
      "Ġcl": 1820,
      "Ġval": 1821,
      "ustr": 1822,
      "Ġnew": 1823,
      "Ġà¤µà¤°": 1824,
      "Ġits": 1825,
      "Ġpath": 1826,
      "Ġprocessing": 1827,
      "Ġserver": 1828,
      "^^^^^^^^": 1829,
      "Ġexecution": 1830,
      "eep": 1831,
      "Ġexplicit": 1832,
      "30": 1833,
      "QL": 1834,
      "Re": 1835,
      "`,": 1836,
      "ks": 1837,
      "ken": 1838,
      "rup": 1839,
      "erge": 1840,
      "Ġsw": 1841,
      "Ġsta": 1842,
      "Ġsoc": 1843,
      "ven": 1844,
      "Ġpers": 1845,
      "Ġresu": 1846,
      "Ġent": 1847,
      "Ġevery": 1848,
      "à¥Ģ,": 1849,
      "Ġsequ": 1850,
      "Ġgra": 1851,
      "ash": 1852,
      "Ġsystems": 1853,
      "Ġhoti": 1854,
      "Ġà¤Ĺà¤¯": 1855,
      "motion": 1856,
      "Ġappro": 1857,
      "Ġà¤ļà¤²": 1858,
      "ign": 1859,
      "Ġhead": 1860,
      "Ġbina": 1861,
      "//": 1862,
      "42": 1863,
      "CP": 1864,
      "De": 1865,
      "ator": 1866,
      "kly": 1867,
      "stic": 1868,
      "Ġgu": 1869,
      "Ġout": 1870,
      "Ġlist": 1871,
      "input": 1872,
      "ari": 1873,
      "alth": 1874,
      "Ġpower": 1875,
      "Ġinclude": 1876,
      "Ġrequires": 1877,
      "Ġele": 1878,
      "Ġkarne": 1879,
      "Ġthread": 1880,
      "ational": 1881,
      "Ġsummary": 1882,
      "Ġnon": 1883,
      "Ġbrief": 1884,
      "ĠCom": 1885,
      "à¤Ĩà¤Ī": 1886,
      "Ġdepen": 1887,
      "laxed": 1888,
      "ups": 1889,
      "Ġà¤ĩà¤¸": 1890,
      "Ġhote": 1891,
      "Ġà¤¸à¤¬": 1892,
      "Ġorder": 1893,
      "ffic": 1894,
      "Ġtransaction": 1895,
      "mantic": 1896,
      "graph": 1897,
      "DFs": 1898,
      "Ġmaintain": 1899,
      "Ġqueue": 1900,
      "Ġgener": 1901,
      "uthor": 1902,
      "confir": 1903,
      "ruption": 1904,
      "!'": 1905,
      "PI": 1906,
      "PDFs": 1907,
      "Wee": 1908,
      "ax": 1909,
      "calendar": 1910,
      "dan": 1911,
      "emotion": 1912,
      "fore": 1913,
      "hro": 1914,
      "htt": 1915,
      "nch": 1916,
      "rustr": 1917,
      "tal": 1918,
      "Ġ+": 1919,
      "Ġ8": 1920,
      "Ġna": 1921,
      "inactivity": 1922,
      "arge": 1923,
      "mes": 1924,
      "Ġremember": 1925,
      "ritical": 1926,
      "riend": 1927,
      "à¤¤à¤®": 1928,
      "Ġmicro": 1929,
      "Ġconsole": 1930,
      "Ġ30": 1931,
      "password": 1932,
      "idth": 1933,
      "terminal": 1934,
      "Ġimple": 1935,
      "Ġdetect": 1936,
      "Ġà¤¸à¤¹": 1937,
      "Ġsays": 1938,
      "ĠDocuments": 1939,
      "Ġone": 1940,
      "awareness": 1941,
      "Ġlatency": 1942,
      "ffer": 1943,
      "Ġbefore": 1944,
      "ĠKeep": 1945,
      "Ġovernight": 1946,
      "buffers": 1947,
      "Ġmultiple": 1948,
      "\"],": 1949,
      "interruption": 1950,
      "Ġconcise": 1951,
      "agno": 1952,
      "Ġmodel": 1953,
      "Ġindex": 1954,
      "Ġengine": 1955,
      "Ġdownlo": 1956,
      "026": 1957,
      "ilities": 1958,
      "Ġdistributed": 1959,
      "quiet": 1960,
      "Ġphys": 1961,
      "Ġswitch": 1962,
      "confirmation": 1963,
      "Weekly": 1964,
      "dantic": 1965,
      "hrome": 1966,
      "riendly": 1967,
      "50": 1968,
      "Pro": 1969,
      "bility": 1970,
      "ient": 1971,
      "pid": 1972,
      "Ġta": 1973,
      "Ġlow": 1974,
      "ntax": 1975,
      "Ġam": 1976,
      "Ġfix": 1977,
      "Ġprodu": 1978,
      "Ġhard": 1979,
      "viron": 1980,
      "à¤µà¤¨": 1981,
      "termin": 1982,
      "Ġallows": 1983,
      "Ġtra": 1984,
      "Ġenviron": 1985,
      "Ġrahe": 1986,
      "Ġmonth": 1987,
      "Ġmanagement": 1988,
      "rypto": 1989,
      "Ġsched": 1990,
      "Ġagain": 1991,
      "Ġtasks": 1992,
      "curs": 1993,
      "Ġà¤¸à¤¬à¤¸": 1994,
      "64": 1995,
      "ast": 1996,
      "ager": 1997,
      "cing": 1998,
      "een": 1999,
      "han": 2000,
      "mpt": 2001,
      "rin": 2002,
      "wo": 2003,
      "Ġ|": 2004,
      "Ġcal": 2005,
      "Ġlanguage": 2006,
      "eri": 2007,
      "ante": 2008,
      "arante": 2009,
      "onal": 2010,
      "ves": 2011,
      "à¤°à¤®": 2012,
      "metry": 2013,
      "ges": 2014,
      "Ġeach": 2015,
      "ries": 2016,
      "à¤¯à¤¤": 2017,
      "Ġdec": 2018,
      "Ġbetw": 2019,
      "ĠEngine": 2020,
      "Ġruntime": 2021,
      "ody": 2022,
      "Ġstream": 2023,
      "ĠDe": 2024,
      "Ġauth": 2025,
      "ĠMode": 2026,
      "Ġfunction": 2027,
      "Ġguarante": 2028,
      "agnostic": 2029,
      "Ġbetween": 2030,
      "://": 2031,
      "cy": 2032,
      "his": 2033,
      "nce": 2034,
      "ru": 2035,
      "sha": 2036,
      "width": 2037,
      "Ġlevel": 2038,
      "Ġtype": 2039,
      "à¤ħ": 2040,
      "rees": 2041,
      "Ġsilent": 2042,
      "lemetry": 2043,
      "Ġanalyze": 2044,
      "istic": 2045,
      "Ġab": 2046,
      "Ġaccess": 2047,
      "Ġint": 2048,
      "Ġrepe": 2049,
      "Ġedit": 2050,
      "Ġfre": 2051,
      "its": 2052,
      "namic": 2053,
      "nauthor": 2054,
      "Ġthis": 2055,
      "ĠSe": 2056,
      "Ġself": 2057,
      "à¤µà¤¸": 2058,
      "à¤µà¤ļ": 2059,
      "à¤¦à¤¨": 2060,
      "head": 2061,
      "Ġà¤ħà¤¸": 2062,
      "Ġline": 2063,
      "dio": 2064,
      "sitive": 2065,
      "Ġenforce": 2066,
      "Ġjata": 2067,
      "Ġmodern": 2068,
      "Ġtable": 2069,
      "tural": 2070,
      "Ġcomplex": 2071,
      "à¥Ĥà¤ģà¥¤": 2072,
      "Ġnodes": 2073,
      "Ġtypes": 2074,
      "ciple": 2075,
      "Ġhardware": 2076,
      "Ġenvironment": 2077,
      "ryptograph": 2078,
      "rinciple": 2079,
      "nauthorized": 2080,
      "10": 2081,
      "NS": 2082,
      "Sab": 2083,
      "afe": 2084,
      "eight": 2085,
      "fter": 2086,
      "ki": 2087,
      "ld": 2088,
      "stan": 2089,
      "à¤ŀ": 2090,
      "alys": 2091,
      "message": 2092,
      "Ġpattern": 2093,
      "à¤¾à¥¤": 2094,
      "verse": 2095,
      "Ġaap": 2096,
      "Ġes": 2097,
      "Ġwa": 2098,
      "rig": 2099,
      "kets": 2100,
      "ĠSer": 2101,
      "Ġ10": 2102,
      "Ġglobal": 2103,
      "ĠPDF": 2104,
      "ĠDownload": 2105,
      "Ġview": 2106,
      "Ġbuild": 2107,
      "ference": 2108,
      "turb": 2109,
      "based": 2110,
      "Ġcapa": 2111,
      "Ġstrictly": 2112,
      "Ġvalue": 2113,
      "Ġphysical": 2114,
      "Ġsilently": 2115,
      "alysis": 2116,
      "ĠDownloads": 2117,
      "AM": 2118,
      "Con": 2119,
      "ER": 2120,
      "GB": 2121,
      "av": 2122,
      "ck": 2123,
      "fix": 2124,
      "ler": 2125,
      "ues": 2126,
      "umber": 2127,
      "Ġver": 2128,
      "Ġya": 2129,
      "Ġolder": 2130,
      "à¤¢": 2131,
      "à¤ĵ": 2132,
      "reg": 2133,
      "tors": 2134,
      "olog": 2135,
      "Ġspa": 2136,
      "tili": 2137,
      "lean": 2138,
      "ssu": 2139,
      "Ġassistant": 2140,
      "Ġinstruc": 2141,
      "Ġrece": 2142,
      "acity": 2143,
      "Ġprogra": 2144,
      "Ġcryptograph": 2145,
      "Ġclean": 2146,
      "Ġoc": 2147,
      "Ġoperating": 2148,
      "full": 2149,
      "Ġà¤ľà¤¬": 2150,
      "à¤ļà¤¨": 2151,
      "limit": 2152,
      "table": 2153,
      "Ġdevel": 2154,
      "ĠPC": 2155,
      "apacity": 2156,
      "Ġallow": 2157,
      "Ġfilesystem": 2158,
      "side": 2159,
      "Ġbuffers": 2160,
      "Ġunauthorized": 2161,
      "Ġtelemetry": 2162,
      "Ġatt": 2163,
      "Ġdirec": 2164,
      "Ġdiagnostic": 2165,
      "Ġtwo": 2166,
      "Ġbinary": 2167,
      "quested": 2168,
      "Ġsyntax": 2169,
      "Ġspec": 2170,
      "fficient": 2171,
      "Ġimplement": 2172,
      "Ġfrequ": 2173,
      "->": 2174,
      ".,": 2175,
      "19": 2176,
      "2026": 2177,
      "Back": 2178,
      "How": 2179,
      "OM": 2180,
      "block": 2181,
      "ier": 2182,
      "main": 2183,
      "ring": 2184,
      "Ġtext": 2185,
      "ĠMain": 2186,
      "Ġold": 2187,
      "Ġsto": 2188,
      "Ġsoftware": 2189,
      "Ġperform": 2190,
      "Ġres": 2191,
      "Ġrequested": 2192,
      "Ġhone": 2193,
      "tention": 2194,
      "ences": 2195,
      "ensitive": 2196,
      "ras": 2197,
      "atter": 2198,
      "vices": 2199,
      "à¤·à¤®": 2200,
      "à¤·à¤®à¤¤": 2201,
      "Ġconvers": 2202,
      "eting": 2203,
      "Ġkeys": 2204,
      "tablish": 2205,
      "matically": 2206,
      "Ġoff": 2207,
      "ĠPython": 2208,
      "inux": 2209,
      "inutes": 2210,
      "ĠDis": 2211,
      "audio": 2212,
      "Ġdisplay": 2213,
      "Ġprevent": 2214,
      "Ġautomation": 2215,
      "Ġbuffer": 2216,
      "quests": 2217,
      "Ġlocally": 2218,
      "ability": 2219,
      "Ġsubsystem": 2220,
      "ĊĠĠĠĠĠĠĠĠĠĠĠĠĠĠĠĠ": 2221,
      "à¤īà¤ľ": 2222,
      "Ġinitial": 2223,
      "https": 2224,
      "nchron": 2225,
      "Ġschedu": 2226,
      "Ġrepeated": 2227,
      "()": 2228,
      "12": 2229,
      "ON": 2230,
      "aw": 2231,
      "az": 2232,
      "bilities": 2233,
      "first": 2234,
      "ie": 2235,
      "ition": 2236,
      "ling": 2237,
      "pr": 2238,
      "rre": 2239,
      "ype": 2240,
      "ynamic": 2241,
      "Ġ$": 2242,
      "ined": 2243,
      "ering": 2244,
      "anted": 2245,
      "Ġsol": 2246,
      "Ġsec": 2247,
      "lete": 2248,
      "lease": 2249,
      "ong": 2250,
      "à¤°à¤¸": 2251,
      "à¤°à¤¹": 2252,
      "Ġpac": 2253,
      "Ġinstall": 2254,
      "Ġrepre": 2255,
      "Ġhow": 2256,
      "Ġexecutes": 2257,
      "Ġcach": 2258,
      "Ġsele": 2259,
      "Ġbase": 2260,
      "à¤¸à¤°": 2261,
      "à¤¦à¤¦": 2262,
      "Ġtoken": 2263,
      "Ġà¤®à¤¦à¤¦": 2264,
      "Ġadd": 2265,
      "Ġvari": 2266,
      "Ġmessage": 2267,
      "Ġdep": 2268,
      "last": 2269,
      "à¤¹à¤¤": 2270,
      "Ġcha": 2271,
      "Ġà¤¬à¤¨": 2272,
      "Ġconfigu": 2273,
      "Ġlive": 2274,
      "Ġjo": 2275,
      "à¤µà¤°à¤£": 2276,
      "Ġupd": 2277,
      "Ġlogs": 2278,
      "utes": 2279,
      "à¤ĩà¤²": 2280,
      "Ġrapid": 2281,
      "ĠUn": 2282,
      "Ġà¤¯à¤¹": 2283,
      "Ġtree": 2284,
      "Ġautomate": 2285,
      "Ġhash": 2286,
      "Ġminim": 2287,
      "day": 2288,
      "data": 2289,
      "Ġdelete": 2290,
      "ormal": 2291,
      "Ġconnection": 2292,
      "Ġpersonal": 2293,
      "à¤¦à¤¨à¤¶": 2294,
      "Ġestablish": 2295,
      "Ġcapabilities": 2296,
      "))": 2297,
      "25": 2298,
      "='": 2299,
      "All": 2300,
      "Co": 2301,
      "ES": 2302,
      "LS": 2303,
      "Meri": 2304,
      "Or": 2305,
      "PC": 2306,
      "Screen": 2307,
      "Who": 2308,
      "ature": 2309,
      "ira": 2310,
      "jec": 2311,
      "of": 2312,
      "ose": 2313,
      "sta": 2314,
      "wanted": 2315,
      "yload": 2316,
      "Ġ]": 2317,
      "Ġload": 2318,
      "Ġlay": 2319,
      "ink": 2320,
      "tom": 2321,
      "tories": 2322,
      "core": 2323,
      "arm": 2324,
      "echan": 2325,
      "thing": 2326,
      "metric": 2327,
      "Ġassis": 2328,
      "Ġaway": 2329,
      "Ġcore": 2330,
      "Ġfin": 2331,
      "Ġfolder": 2332,
      "ĠAn": 2333,
      "ency": 2334,
      "à¤¯à¤®": 2335,
      "à¥Ī?": 2336,
      "Ġcapture": 2337,
      "ĠSensitive": 2338,
      "Ġnot": 2339,
      "Ġsession": 2340,
      "loy": 2341,
      "Ġminutes": 2342,
      "Ġbilling": 2343,
      "à¤¸à¤Ń": 2344,
      "Ġconsis": 2345,
      "Ġ18": 2346,
      "Ġwhat": 2347,
      "Ġtoday": 2348,
      "tory": 2349,
      "Ġrate": 2350,
      "Ġimp": 2351,
      "ilter": 2352,
      "health": 2353,
      "mption": 2354,
      "Ġobjects": 2355,
      "Ġdays": 2356,
      "ncies": 2357,
      "ential": 2358,
      "Ġà¤ıà¤Ĩà¤Ī": 2359,
      "Ġunwanted": 2360,
      "ault": 2361,
      "Ġjob": 2362,
      "à¤¼à¤¾": 2363,
      "ĠBilling": 2364,
      "Ġkaun": 2365,
      "Ġkaise": 2366,
      "phone": 2367,
      "Ġà¤ļà¤²à¤¤": 2368,
      "hiye": 2369,
      "manager": 2370,
      "face": 2371,
      "ĊĠĠĠĠĠĠĠĠĠĠĠĠĠ": 2372,
      "Ġexecutions": 2373,
      "anges": 2374,
      "à¥Ĥà¤ģ,": 2375,
      "committed": 2376,
      "Ġmins": 2377,
      "parser": 2378,
      "ĠComm": 2379,
      "Ġshared": 2380,
      "Ġcomputer": 2381,
      "What": 2382,
      "Ġmust": 2383,
      "Ġapproval": 2384,
      "Sabhi": 2385,
      "Ġaapki": 2386,
      "Ġviewing": 2387,
      "Ġreceive": 2388,
      "Ġcryptographic": 2389,
      "Ġattack": 2390,
      "Ġconversation": 2391,
      "Ġoffline": 2392,
      "nchronous": 2393,
      "Ġchahiye": 2394,
      "Ġassist": 2395,
      "AC": 2396,
      "Script": 2397,
      "af": 2398,
      "aded": 2399,
      "body": 2400,
      "ever": 2401,
      "io": 2402,
      "oper": 2403,
      "yc": 2404,
      "Ġget": 2405,
      "Ġsm": 2406,
      "alog": 2407,
      "ector": 2408,
      "thod": 2409,
      "order": 2410,
      "ish": 2411,
      "device": 2412,
      "Ġafter": 2413,
      "Ġrend": 2414,
      "Ġredu": 2415,
      "Ġfe": 2416,
      "Ġhy": 2417,
      "ĠAS": 2418,
      "à¤¤à¤¨": 2419,
      "naira": 2420,
      "Ġthem": 2421,
      "à¥Ģà¤Ĥ": 2422,
      "ĠEx": 2423,
      "Ġsuch": 2424,
      "Ġsupp": 2425,
      "Ġdocuments": 2426,
      "Ġdynamic": 2427,
      "ĠHigh": 2428,
      "critical": 2429,
      "Ġbou": 2430,
      "à¤µà¤²": 2431,
      "Ġ(`": 2432,
      "Ġstructures": 2433,
      "Ġdestruc": 2434,
      "Ġdescri": 2435,
      "à¤¡à¤²": 2436,
      "ardless": 2437,
      "pendent": 2438,
      "Ġà¤ħà¤¤": 2439,
      "ĠNot": 2440,
      "Ġlimit": 2441,
      "ĠMan": 2442,
      "Ġuncommitted": 2443,
      "Ġdisk": 2444,
      "Ġbeen": 2445,
      "ĠKey": 2446,
      "urrency": 2447,
      "Ġpop": 2448,
      "à¤ĩà¤¨": 2449,
      "Ġconcurrent": 2450,
      "address": 2451,
      "Ġregardless": 2452,
      "Ġcreate": 2453,
      "Ġswitches": 2454,
      "ava": 2455,
      "Ġfrequency": 2456,
      "Ġrepeatedly": 2457,
      "Ġvariable": 2458,
      "88": 2459,
      "AT": 2460,
      "OR": 2461,
      "Ter": 2462,
      "This": 2463,
      "dic": 2464,
      "eer": 2465,
      "handle": 2466,
      "ja": 2467,
      "ls": 2468,
      "late": 2469,
      "lint": 2470,
      "ns": 2471,
      "wh": 2472,
      "Ġvide": 2473,
      "ĠTo": 2474,
      "iness": 2475,
      "inue": 2476,
      "Ġà¤Ĭ": 2477,
      "erence": 2478,
      "Ġsim": 2479,
      "sub": 2480,
      "sually": 2481,
      "Ġpy": 2482,
      "Ġpub": 2483,
      "Ġcookies": 2484,
      "ific": 2485,
      "Ġred": 2486,
      "Ġreset": 2487,
      "Ġresol": 2488,
      "Ġrequests": 2489,
      "Ġed": 2490,
      "Ġeli": 2491,
      "Ġefficient": 2492,
      "ould": 2493,
      "self": 2494,
      "ĠAPI": 2495,
      "Ġthree": 2496,
      "Ġoper": 2497,
      "ĠStrict": 2498,
      "Ġnow": 2499,
      "Ġsemantic": 2500,
      "Ġmechan": 2501,
      "Ġbatch": 2502,
      "Ġprovides": 2503,
      "ngth": 2504,
      "defer": 2505,
      "Ġcontinue": 2506,
      "Ġoffer": 2507,
      "Ġà¤Ĺà¤£": 2508,
      "Ġonly": 2509,
      "Ġà¤Ĩà¤§": 2510,
      "Ġaudi": 2511,
      "Ġasks": 2512,
      "ĠMB": 2513,
      "Ġunder": 2514,
      "auth": 2515,
      "Ġtech": 2516,
      "ndaries": 2517,
      "Ġpoin": 2518,
      "ached": 2519,
      "Ġmove": 2520,
      "Ġjaate": 2521,
      "ĠJava": 2522,
      "Ġcomplete": 2523,
      "resh": 2524,
      "queue": 2525,
      "ganization": 2526,
      "Ġdeleting": 2527,
      "logs": 2528,
      "ĠMemory": 2529,
      "Ġkiye": 2530,
      "Ġframe": 2531,
      "Ġgraph": 2532,
      "Ġdepende": 2533,
      "Ġmonthly": 2534,
      "rupt": 2535,
      "Ġspace": 2536,
      "tiliz": 2537,
      "Ġcleanup": 2538,
      "Ġdirectories": 2539,
      "Ġrepresent": 2540,
      "Ġboundaries": 2541,
      "Ġvideo": 2542,
      "Ġelimin": 2543,
      "',": 2544,
      "/\",": 2545,
      "142": 2546,
      "700": 2547,
      "85": 2548,
      "::": 2549,
      "Do": 2550,
      "EST": 2551,
      "ID": 2552,
      "IN": 2553,
      "Operation": 2554,
      "`)": 2555,
      "ament": 2556,
      "atabase": 2557,
      "ctions": 2558,
      "dur": 2559,
      "dir": 2560,
      "gy": 2561,
      "ible": 2562,
      "iel": 2563,
      "lta": 2564,
      "lines": 2565,
      "large": 2566,
      "pin": 2567,
      "ules": 2568,
      "ĠQ": 2569,
      "eries": 2570,
      "request": 2571,
      "remember": 2572,
      "ant": 2573,
      "ark": 2574,
      "arding": 2575,
      "Ġste": 2576,
      "Ġsource": 2577,
      "Ġsign": 2578,
      "ecause": 2579,
      "à¤°à¤Ń": 2580,
      "Ġany": 2581,
      "Ġanalysis": 2582,
      "sum": 2583,
      "Ġpol": 2584,
      "Ġcom": 2585,
      "ification": 2586,
      "Ġinteg": 2587,
      "Ġrelaxed": 2588,
      "Ġemp": 2589,
      "ics": 2590,
      "Ġfind": 2591,
      "Ġfund": 2592,
      "Ġfilter": 2593,
      "agement": 2594,
      "Ġprob": 2595,
      "Ġproper": 2596,
      "Ġproble": 2597,
      "Ġhis": 2598,
      "à¤¨à¤ķ": 2599,
      "à¤Łà¤µà¤°": 2600,
      "username": 2601,
      "Ġmon": 2602,
      "Ġbus": 2603,
      "Ġboth": 2604,
      "ions": 2605,
      "Ġ15": 2606,
      "à¤Ĺà¤¤": 2607,
      "Ġaction": 2608,
      "Ġgre": 2609,
      "Ġmetric": 2610,
      "Ġite": 2611,
      "prompt": 2612,
      "hase": 2613,
      "height": 2614,
      "izes": 2615,
      "pending": 2616,
      "output": 2617,
      "Ġloop": 2618,
      "Ġà¤ħà¤§": 2619,
      "Ġtrack": 2620,
      "Ġ`/": 2621,
      "Ġund": 2622,
      "auto": 2623,
      "sive": 2624,
      "Ġdist": 2625,
      "Ġparti": 2626,
      "Ġ->": 2627,
      "Ġopening": 2628,
      "à¤ĩà¤ľ": 2629,
      "Ġrather": 2630,
      "ggested": 2631,
      "Ġoverhead": 2632,
      "Ġmoving": 2633,
      "Ġinterrupt": 2634,
      "Ġmax": 2635,
      "Ġmathe": 2636,
      "bling": 2637,
      "ĠJS": 2638,
      "ĊĠĠĠĠĠĠĠĠĠ": 2639,
      "ganize": 2640,
      "Ġclassified": 2641,
      "addr": 2642,
      "Ġregis": 2643,
      "Ġcolum": 2644,
      "~~~~~~~~": 2645,
      "Ġasync": 2646,
      "Ġasynchronous": 2647,
      "ĠSupp": 2648,
      "Ġfailing": 2649,
      "Ġclick": 2650,
      "Request": 2651,
      "Ġresumes": 2652,
      "Ġresumption": 2653,
      "Ġsequence": 2654,
      "rigger": 2655,
      "Ġperformance": 2656,
      "print": 2657,
      "Ġsecre": 2658,
      "Ġupdates": 2659,
      "Ġrapidly": 2660,
      "Ġdestructive": 2661,
      "ĠManagement": 2662,
      "Ġfundament": 2663,
      "\"\"": 2664,
      ".'": 2665,
      ".\",": 2666,
      "?!'": 2667,
      "AL": 2668,
      "Critical": 2669,
      "Chrome": 2670,
      "EC": 2671,
      "Hey": 2672,
      "Im": 2673,
      "Me": 2674,
      "Mute": 2675,
      "Morning": 2676,
      "Stop": 2677,
      "VS": 2678,
      "Wipe": 2679,
      "Zo": 2680,
      "__": 2681,
      "billing": 2682,
      "brief": 2683,
      "cache": 2684,
      "cached": 2685,
      "eh": 2686,
      "ema": 2687,
      "frustr": 2688,
      "friendly": 2689,
      "ga": 2690,
      "global": 2691,
      "mute": 2692,
      "morning": 2693,
      "now": 2694,
      "otify": 2695,
      "page": 2696,
      "png": 2697,
      "pip": 2698,
      "rans": 2699,
      "rtual": 2700,
      "risk": 2701,
      "sing": 2702,
      "share": 2703,
      "station": 2704,
      "silent": 2705,
      "score": 2706,
      "Ġ7": 2707,
      "Ġx": 2708,
      "Ġtitle": 2709,
      "Ġterminal": 2710,
      "à¤Ľ": 2711,
      "Ġ\"^": 2712,
      "relaxed": 2713,
      "cost": 2714,
      "art": 2715,
      "rout": 2716,
      "letion": 2717,
      "ssid": 2718,
      "organization": 2719,
      "suggested": 2720,
      "iso": 2721,
      "Ġpipe": 2722,
      "Ġpackage": 2723,
      "Ġpipeline": 2724,
      "Ġpush": 2725,
      "Ġprinciple": 2726,
      "delta": 2727,
      "deletion": 2728,
      "ced": 2729,
      "Ġautonomy": 2730,
      "Ġinactive": 2731,
      "Ġinactivity": 2732,
      "Ġinternal": 2733,
      "Ġinstan": 2734,
      "Ġrel": 2735,
      "Ġrep": 2736,
      "Ġresource": 2737,
      "tional": 2738,
      "ours": 2739,
      "Ġfrustr": 2740,
      "Ġfriendly": 2741,
      "Ġwarm": 2742,
      "lying": 2743,
      "rive": 2744,
      "Ġhours": 2745,
      "aila": 2746,
      "unsaved": 2747,
      "à¤¯à¤µà¤¸": 2748,
      "view": 2749,
      "Ġdim": 2750,
      "à¤ķà¤¨": 2751,
      "amaz": 2752,
      "pydantic": 2753,
      "ĠSafe": 2754,
      "console": 2755,
      "Ġnormal": 2756,
      "files": 2757,
      "void": 2758,
      "à¤·à¤£": 2759,
      "Ġmach": 2760,
      "Ġmiss": 2761,
      "Ġbounded": 2762,
      "Ġ288": 2763,
      "Ġ2700": 2764,
      "spotify": 2765,
      "Ġconserve": 2766,
      "000": 2767,
      "Ġtoh": 2768,
      "Ġtotal": 2769,
      "Ġà¤¨à¤¹": 2770,
      "ĠFocus": 2771,
      "urgent": 2772,
      "à¥Īà¤Ĥ,": 2773,
      "ĠVS": 2774,
      "Ġisol": 2775,
      "Ġissu": 2776,
      "ĠChrome": 2777,
      "update": 2778,
      "Ġà¤ªà¤°à¤¤": 2779,
      "ustom": 2780,
      "Ġworkstation": 2781,
      "ĠTCP": 2782,
      "ĠType": 2783,
      "ĠTrigger": 2784,
      "Ġchal": 2785,
      "Ġchatter": 2786,
      "Ġcheer": 2787,
      "mentation": 2788,
      "ĠRisk": 2789,
      "ĠRAM": 2790,
      "Ġlinter": 2791,
      "ĠNever": 2792,
      "Ġà¤¬à¤¢": 2793,
      "Ġconference": 2794,
      "ncry": 2795,
      "Ġunsaved": 2796,
      "Ġbyte": 2797,
      "Ġburn": 2798,
      "prefer": 2799,
      "Ġshow": 2800,
      "Ġtell": 2801,
      "Ġbackups": 2802,
      "question": 2803,
      "Ġopens": 2804,
      "Ġopened": 2805,
      "backend": 2806,
      "background": 2807,
      "trix": 2808,
      "Ġpayload": 2809,
      "Ġdialog": 2810,
      "ggesting": 2811,
      "Ġmatrix": 2812,
      "ĊĠĠĠĠĠĠĠĠĠĠĠĠĠĠĠ": 2813,
      "ĊĠĠĠĠĠĠĠĠĠĠĠĠĠĠĠĠĠĠĠĠ": 2814,
      "Ġà¤¶à¤¬": 2815,
      "Ġtables": 2816,
      "string": 2817,
      "Ġdoing": 2818,
      "Ġalgorithms": 2819,
      "Ġarchitectural": 2820,
      "screenshots": 2821,
      "Ġrout": 2822,
      "ĠConsole": 2823,
      "Ġindependent": 2824,
      "Ġengines": 2825,
      "Ġcasually": 2826,
      "Ġdownloads": 2827,
      "Ġoptimization": 2828,
      "ĠMeeting": 2829,
      "Ġarra": 2830,
      "ĠSuggesting": 2831,
      "Why": 2832,
      "Ġstring": 2833,
      "Ġnotifications": 2834,
      "emerge": 2835,
      "ranch": 2836,
      "Ġeverything": 2837,
      "Ġheaders": 2838,
      "Delete": 2839,
      "Ġbriefing": 2840,
      "Ġmicrophone": 2841,
      "Ġdownloading": 2842,
      "Ġdownloaded": 2843,
      "cursive": 2844,
      "Ġcalm": 2845,
      "Ġauthent": 2846,
      "Ġguarantee": 2847,
      "Ġabstr": 2848,
      "ĠServer": 2849,
      "Ġprogramm": 2850,
      "Background": 2851,
      "ĠDisturb": 2852,
      "Ġscheduled": 2853,
      "aws": 2854,
      "Ġpacket": 2855,
      "Organize": 2856,
      "stats": 2857,
      "Ġreceived": 2858,
      "Ġattacks": 2859,
      "Ġsupport": 2860,
      "Ġpopup": 2861,
      "Terminal": 2862,
      "Ġpydantic": 2863,
      "ĠStrictly": 2864,
      "Ġaudible": 2865,
      "reshold": 2866,
      "duration": 2867,
      "ĠSuppress": 2868,
      "Immediate": 2869,
      "Zoom": 2870,
      "briefing": 2871,
      "frustration": 2872,
      "Ġfrustrated": 2873,
      "amazon": 2874,
      "ĠSafely": 2875,
      "Ġ28800": 2876,
      "Ġissued": 2877,
      "Ġcheerful": 2878,
      "emergency": 2879,
      "${": 2880,
      "().": 2881,
      "01": 2882,
      "HA": 2883,
      "LL": 2884,
      "SC": 2885,
      "SI": 2886,
      "SP": 2887,
      "SQL": 2888,
      "ay": 2889,
      "gin": 2890,
      "gre": 2891,
      "lu": 2892,
      "ral": 2893,
      "vaila": 2894,
      "Ċĉ": 2895,
      "include": 2896,
      "Ġà¤¥": 2897,
      "Ġà¤§": 2898,
      "tel": 2899,
      "test": 2900,
      "tency": 2901,
      "tomic": 2902,
      "comp": 2903,
      "Ġstruc": 2904,
      "ssue": 2905,
      "thes": 2906,
      "à¤¾,": 2907,
      "versi": 2908,
      "Ġass": 2909,
      "Ġinf": 2910,
      "Ġinput": 2911,
      "Ġindi": 2912,
      "Ġrela": 2913,
      "Ġena": 2914,
      "ict": 2915,
      "Ġfac": 2916,
      "sed": 2917,
      "sequ": 2918,
      "raph": 2919,
      "à¤¯à¤¨": 2920,
      "esource": 2921,
      "vidu": 2922,
      "à¤ķà¤²": 2923,
      "Ġcause": 2924,
      "cond": 2925,
      "Ġbl": 2926,
      "Ġbut": 2927,
      "Ġqueries": 2928,
      "à¤¦à¤°": 2929,
      "Ġ100": 2930,
      "plete": 2931,
      "Ġrecor": 2932,
      "Ġformat": 2933,
      "stream": 2934,
      "like": 2935,
      "Ġà¤īà¤¤": 2936,
      "Ġdetermin": 2937,
      "cts": 2938,
      "ĠLog": 2939,
      "ĠLinux": 2940,
      "Ġhost": 2941,
      "Ġà¤ħà¤ªà¤¨": 2942,
      "ĠTh": 2943,
      "Ġalloc": 2944,
      "ĠDNS": 2945,
      "ources": 2946,
      "ĠName": 2947,
      "Ġà¤¬à¤¹": 2948,
      "Ġvirtual": 2949,
      "ently": 2950,
      "Ġà¤ıà¤²": 2951,
      "à¤§à¤¨": 2952,
      "ĠBu": 2953,
      "Ġautomatically": 2954,
      "Ġparame": 2955,
      "example": 2956,
      "Ġupon": 2957,
      "Ġdefer": 2958,
      "Ġreads": 2959,
      "Ġlength": 2960,
      "Ġroot": 2961,
      "Ġfunctions": 2962,
      "Ġwrites": 2963,
      "Ġcomputation": 2964,
      "Ġblocks": 2965,
      "^^^^^^^^^^^^^^^^": 2966,
      "Ġtransactions": 2967,
      "Ġagainst": 2968,
      "Ġallowing": 2969,
      "ierarch": 2970,
      "ĊĠĠĠĠĠĠĠĠĠĠĠĠĠĠĠĠĠĠĠ": 2971,
      "Ġcaches": 2972,
      "Ġaddress": 2973,
      "Ġestablishes": 2974,
      "256": 2975,
      "Ġlayer": 2976,
      "Ġfinish": 2977,
      "ycle": 2978,
      "Ġfeature": 2979,
      "Ġà¤Ĭà¤°": 2980,
      "ĠJavaScript": 2981,
      "ĠJSON": 2982,
      "Ġsecret": 2983,
      "Ġindividu": 2984,
      "Ġenabling": 2985,
      "Ġindividual": 2986,
      ")à¥¤": 2987,
      "86": 2988,
      "=\"": 2989,
      "EL": 2990,
      "IT": 2991,
      "Security": 2992,
      "ace": 2993,
      "br": 2994,
      "capacity": 2995,
      "fers": 2996,
      "gs": 2997,
      "ging": 2998,
      "ka": 2999,
      "oin": 3000,
      "ood": 3001,
      "ure": 3002,
      "ule": 3003,
      "weight": 3004,
      "ync": 3005,
      "zed": 3006,
      "}\"": 3007,
      "Ġ*": 3008,
      "Ġ/": 3009,
      "Ġti": 3010,
      "Ġname": 3011,
      "Ġown": 3012,
      "Ġunt": 3013,
      "ĠĊĠĠĠĠĠĠĠ": 3014,
      "Ġtermin": 3015,
      "erne": 3016,
      "reak": 3017,
      "annel": 3018,
      "Ġsize": 3019,
      "à¤°à¤ļà¤¨": 3020,
      "ism": 3021,
      "Ġpl": 3022,
      "cept": 3023,
      "serv": 3024,
      "Ġach": 3025,
      "Ġcost": 3026,
      "Ġinser": 3027,
      "Ġinference": 3028,
      "Ġrecent": 3029,
      "Ġrelease": 3030,
      "ically": 3031,
      "ages": 3032,
      "ses": 3033,
      "Ġproject": 3034,
      "Ġprojec": 3035,
      "à¤ªà¤¯": 3036,
      "Ġhand": 3037,
      "Ġhierarch": 3038,
      "ulner": 3039,
      "native": 3040,
      "à¤²à¤¨": 3041,
      "à¤ķà¤¤": 3042,
      "Ġà¤¸à¤°": 3043,
      "Ġcritical": 3044,
      "Ġother": 3045,
      "à¥ģà¤Ĥ": 3046,
      "ĠSQL": 3047,
      "Ġbro": 3048,
      "Ġbranch": 3049,
      "Ġconstruc": 3050,
      "Ġcommit": 3051,
      "à¤¦à¤®": 3052,
      "Ġ14": 3053,
      "Ġ19": 3054,
      "Ġvalid": 3055,
      "Ġvulner": 3056,
      "Ġirre": 3057,
      "ĠCache": 3058,
      "Ġcontra": 3059,
      "matical": 3060,
      "former": 3061,
      "hel": 3062,
      "ĠPa": 3063,
      "ifying": 3064,
      "Ġlock": 3065,
      "Ġà¤ħà¤ªà¤°": 3066,
      "ĠTree": 3067,
      "Ġchar": 3068,
      "clus": 3069,
      "Ġexact": 3070,
      "Ġexternal": 3071,
      "uberne": 3072,
      "pothes": 3073,
      "mbed": 3074,
      "ĠInter": 3075,
      "Ġshut": 3076,
      "Ġtest": 3077,
      "Ġtemp": 3078,
      "Ġ--": 3079,
      "Ġpool": 3080,
      "Ġpointer": 3081,
      "valu": 3082,
      "ĠGo": 3083,
      "ctional": 3084,
      "Ġdefines": 3085,
      "Ġready": 3086,
      "Ġexecuting": 3087,
      "Ġdatabases": 3088,
      "à¤īà¤¨": 3089,
      "Ġdirectly": 3090,
      "Ġoptimized": 3091,
      "Ġcolle": 3092,
      "iguous": 3093,
      "Ġstrate": 3094,
      "Ġthroughput": 3095,
      "Ġdesigned": 3096,
      "Ġscan": 3097,
      "Ġcontaining": 3098,
      "Ġsock": 3099,
      "Ġentire": 3100,
      "Ġheader": 3101,
      "Ġà¤ĩà¤¸à¤ķ": 3102,
      "Ġproduction": 3103,
      "Ġinstructions": 3104,
      "Ġdevelop": 3105,
      "Ġjobs": 3106,
      "ACK": 3107,
      "Ġsmall": 3108,
      "Ġlimits": 3109,
      "Ġbusiness": 3110,
      "Ġunderstand": 3111,
      "Ġdistin": 3112,
      "Ġmathematical": 3113,
      "Ġcolumn": 3114,
      "Ġmachine": 3115,
      "Ġrouting": 3116,
      "Ġarray": 3117,
      "versible": 3118,
      "Ġachie": 3119,
      "Ġirreversible": 3120,
      "ubernetes": 3121,
      "14": 3122,
      "100": 3123,
      "Ac": 3124,
      "DO": 3125,
      "ET": 3126,
      "FS": 3127,
      "LO": 3128,
      "ML": 3129,
      "Node": 3130,
      "Plan": 3131,
      "SR": 3132,
      "TML": 3133,
      "bit": 3134,
      "cur": 3135,
      "gation": 3136,
      "itor": 3137,
      "kh": 3138,
      "ker": 3139,
      "lation": 3140,
      "mon": 3141,
      "node": 3142,
      "number": 3143,
      "ost": 3144,
      "so": 3145,
      "structure": 3146,
      "soc": 3147,
      "Ġrow": 3148,
      "Ġlaunch": 3149,
      "ining": 3150,
      "inator": 3151,
      "Ġ\"/": 3152,
      "rein": 3153,
      "ane": 3154,
      "Ġsmo": 3155,
      "Ġsend": 3156,
      "à¤°à¤¯": 3157,
      "Ġpolicy": 3158,
      "Ġpause": 3159,
      "dex": 3160,
      "server": 3161,
      "Ġcount": 3162,
      "Ġcorout": 3163,
      "Ġà¤ķà¤¹à¤¤": 3164,
      "Ġincre": 3165,
      "ged": 3166,
      "Ġenable": 3167,
      "Ġencry": 3168,
      "Ġevalu": 3169,
      "ount": 3170,
      "Ġfl": 3171,
      "Ġfree": 3172,
      "Ġfound": 3173,
      "Ġwri": 3174,
      "Ġweight": 3175,
      "quir": 3176,
      "rid": 3177,
      "Ġhu": 3178,
      "ster": 3179,
      "à¤¨à¤°": 3180,
      "Ġkarti": 3181,
      "ĠApp": 3182,
      "ĠAler": 3183,
      "ows": 3184,
      "Ġthey": 3185,
      "Ġà¤ķà¤°à¤ķ": 3186,
      "est": 3187,
      "à¥Ī:": 3188,
      "ĠHTML": 3189,
      "Ġclose": 3190,
      "ĠStatus": 3191,
      "Ġbit": 3192,
      "Ġconstr": 3193,
      "Ġtop": 3194,
      "ĠFor": 3195,
      "ĠFile": 3196,
      "à¤Ĺà¤°": 3197,
      "Ġcommunication": 3198,
      "crete": 3199,
      "Ġmethod": 3200,
      "ĠCSS": 3201,
      "Ġdescription": 3202,
      "Ġà¤¸à¤Ń": 3203,
      "formation": 3204,
      "Ġstd": 3205,
      "ĠPO": 3206,
      "Ġloss": 3207,
      "Ġà¤ħà¤ª": 3208,
      "à¤¹à¤°": 3209,
      "ĠTrans": 3210,
      "Ġorgan": 3211,
      "Ġidentical": 3212,
      "Ġlarge": 3213,
      "Ġexce": 3214,
      "ĠNode": 3215,
      "Ġunit": 3216,
      "Ġà¤°à¤ĸ": 3217,
      "à¤¼à¤¿": 3218,
      "Ġpredic": 3219,
      "Ġpartic": 3220,
      "Ġutiliz": 3221,
      "Ġshor": 3222,
      "ĠWrite": 3223,
      "ĠWeb": 3224,
      "Ġkarein": 3225,
      "ĠGPU": 3226,
      "ĠUni": 3227,
      "igna": 3228,
      "trib": 3229,
      "Ġinterpre": 3230,
      "Ġprocesses": 3231,
      "Ġservers": 3232,
      "Ġservice": 3233,
      "Ġheap": 3234,
      "Ġhealth": 3235,
      "Ġused": 3236,
      "Ġtrees": 3237,
      "Ġà¤¸à¤ķà¤¤": 3238,
      "Ġqueues": 3239,
      "Ġarchitectures": 3240,
      "Ġvector": 3241,
      "Ġpersis": 3242,
      "Ġelements": 3243,
      "Ġthreads": 3244,
      "Ġengineering": 3245,
      "Ġcomplexity": 3246,
      "region": 3247,
      "ological": 3248,
      "Ġoccurs": 3249,
      "Ġdeveloper": 3250,
      "Ġspecific": 3251,
      "Ġstore": 3252,
      "Ġresources": 3253,
      "Ġdeploy": 3254,
      "ĠUnlike": 3255,
      "Ġmaxim": 3256,
      "Ġregisters": 3257,
      "Ġfundamental": 3258,
      "Ġpipelines": 3259,
      "ĊĠĠĠĠĠĠĠĠĠĠĠĠĠĠĠĠĠĠĠĠĠ": 3260,
      "Ġprogramming": 3261,
      "pothesis": 3262,
      "Ġdistinct": 3263,
      "Ġsmooth": 3264,
      "ĠAlert": 3265,
      "Ġconstrain": 3266,
      "18": 3267,
      "DI": 3268,
      "DR": 3269,
      "Focus": 3270,
      "Good": 3271,
      "Hel": 3272,
      "Micro": 3273,
      "RU": 3274,
      "Star": 3275,
      "TLS": 3276,
      "Up": 3277,
      "cam": 3278,
      "card": 3279,
      "currency": 3280,
      "dd": 3281,
      "dri": 3282,
      "down": 3283,
      "ep": 3284,
      "eed": 3285,
      "gmentation": 3286,
      "lers": 3287,
      "mary": 3288,
      "non": 3289,
      "ont": 3290,
      "rc": 3291,
      "range": 3292,
      "tate": 3293,
      "tten": 3294,
      "work": 3295,
      "Ġ.": 3296,
      "Ġ>": 3297,
      "ĠX": 3298,
      "Ġargu": 3299,
      "Ġtarget": 3300,
      "Ġright": 3301,
      "Ġ64": 3302,
      "à¤ł": 3303,
      "Ġà¤ł": 3304,
      "teri": 3305,
      "ertif": 3306,
      "tore": 3307,
      "aries": 3308,
      "ole": 3309,
      "Ġso": 3310,
      "Ġsir": 3311,
      "Ġspen": 3312,
      "Ġside": 3313,
      "tial": 3314,
      "tices": 3315,
      "roup": 3316,
      "roups": 3317,
      "len": 3318,
      "alle": 3319,
      "alloc": 3320,
      "à¤°à¤µ": 3321,
      "ors": 3322,
      "orrow": 3323,
      "orted": 3324,
      "à¤¾'": 3325,
      "services": 3326,
      "ateway": 3327,
      "Ġinv": 3328,
      "Ġintel": 3329,
      "gest": 3330,
      "Ġreh": 3331,
      "Ġreal": 3332,
      "Ġreli": 3333,
      "Ġek": 3334,
      "Ġfast": 3335,
      "mmu": 3336,
      "ĠAg": 3337,
      "change": 3338,
      "chema": 3339,
      "ominal": 3340,
      "ener": 3341,
      "rame": 3342,
      "Ġdra": 3343,
      "Ġdocu": 3344,
      "Ġdras": 3345,
      "Ġdark": 3346,
      "Ġà¤¹à¤®": 3347,
      "à¤ķà¤Ĺ": 3348,
      "peri": 3349,
      "Ġcapacity": 3350,
      "ĠOpen": 3351,
      "Ġforward": 3352,
      "Ġnumber": 3353,
      "cated": 3354,
      "ands": 3355,
      "Ġmorning": 3356,
      "Ġba": 3357,
      "Ġbo": 3358,
      "Ġbreak": 3359,
      "speed": 3360,
      "Ġconst": 3361,
      "ects": 3362,
      "ety": 3363,
      "liye": 3364,
      "Ġisliye": 3365,
      "ternative": 3366,
      "ask": 3367,
      "Ġide": 3368,
      "ĠCh": 3369,
      "lab": 3370,
      "Ġcontiguous": 3371,
      "Ġstack": 3372,
      "ĠPrinciple": 3373,
      "Ġusers": 3374,
      "Ġcalls": 3375,
      "ĠTime": 3376,
      "Ġcho": 3377,
      "Ġchild": 3378,
      "Ġstates": 3379,
      "Ġidentify": 3380,
      "ĠRa": 3381,
      "Ġsafely": 3382,
      "Ġextract": 3383,
      "Ġlight": 3384,
      "Ġlibr": 3385,
      "ditional": 3386,
      "sition": 3387,
      "Ġenfor": 3388,
      "Ġjiss": 3389,
      "à¤¼à¥į": 3390,
      "Ġdisturb": 3391,
      "Ġprevents": 3392,
      "ĠBecause": 3393,
      "month": 3394,
      "Ġà¤¤à¤°à¤¹": 3395,
      "Ġcompre": 3396,
      "Ġtests": 3397,
      "Ġbackup": 3398,
      "Ġbackend": 3399,
      "ĠKB": 3400,
      "ĠKya": 3401,
      "Ġ500": 3402,
      "Ġposs": 3403,
      "Ġmost": 3404,
      "Ġpass": 3405,
      "Ġinterface": 3406,
      "Ġservices": 3407,
      "ĠProtocol": 3408,
      "Ġdefine": 3409,
      "Ġmodules": 3410,
      "ĠReset": 3411,
      "Ġleak": 3412,
      "aki": 3413,
      "Ġpermissions": 3414,
      "ationshi": 3415,
      "ĠCost": 3416,
      "Ġtyping": 3417,
      "tens": 3418,
      "Ġvectors": 3419,
      "----": 3420,
      "Ġpaths": 3421,
      "Ġsocket": 3422,
      "venue": 3423,
      "Ġsequential": 3424,
      "Ġelement": 3425,
      "ĠComplete": 3426,
      "Ġtraverse": 3427,
      "Ġdecl": 3428,
      "Ġwait": 3429,
      "Ġvertex": 3430,
      "ology": 3431,
      "Ġinstruction": 3432,
      "Ġsolve": 3433,
      "Ġselect": 3434,
      "Ġtokens": 3435,
      "inked": 3436,
      "Ġrender": 3437,
      "Ġvariables": 3438,
      "where": 3439,
      "Ġpublish": 3440,
      "Ġresolve": 3441,
      "Ġedges": 3442,
      "Ġtechn": 3443,
      "Ġdependencies": 3444,
      "Ġproblem": 3445,
      "Ġmetrics": 3446,
      "nowled": 3447,
      "Ġmissing": 3448,
      "Ġdeterministic": 3449,
      "Ġuntil": 3450,
      "Ġprojected": 3451,
      "Ġcontrast": 3452,
      "Ġshutdown": 3453,
      "à¤īà¤¨à¤²": 3454,
      "Ġstrateg": 3455,
      "Ġdevelopment": 3456,
      "Ġcoroutine": 3457,
      "Ġfoundational": 3458,
      "quiring": 3459,
      "Ġhuman": 3460,
      "ignature": 3461,
      "Ġhealthy": 3462,
      "Ġsmoothly": 3463,
      "Hello": 3464,
      "ertificate": 3465,
      "Ġsirf": 3466,
      "Ġspend": 3467,
      "Ġdrastically": 3468,
      "Ġjisse": 3469,
      "():": 3470,
      "16": 3471,
      "38": 3472,
      "99": 3473,
      "Al": 3474,
      "At": 3475,
      "API": 3476,
      "Bu": 3477,
      "CD": 3478,
      "Database": 3479,
      "He": 3480,
      "ROM": 3481,
      "SD": 3482,
      "SL": 3483,
      "TL": 3484,
      "Te": 3485,
      "Task": 3486,
      "aces": 3487,
      "bt": 3488,
      "ctive": 3489,
      "case": 3490,
      "cular": 3491,
      "dicate": 3492,
      "emp": 3493,
      "from": 3494,
      "fig": 3495,
      "gative": 3496,
      "ily": 3497,
      "itions": 3498,
      "ique": 3499,
      "king": 3500,
      "licate": 3501,
      "ming": 3502,
      "mod": 3503,
      "pg": 3504,
      "rch": 3505,
      "sti": 3506,
      "tre": 3507,
      "ult": 3508,
      "ust": 3509,
      "vec": 3510,
      "vate": 3511,
      "xt": 3512,
      "ĊĠĠ": 3513,
      "ĊĊĠĠĠ": 3514,
      "ĠÎ": 3515,
      "Ġlis": 3516,
      "Ġus": 3517,
      "Ġ__": 3518,
      "à¤ĥ": 3519,
      "à¤Ŀ": 3520,
      "Ġà¤ĺ": 3521,
      "tend": 3522,
      "Ġ\"${": 3523,
      "remove": 3524,
      "arb": 3525,
      "oll": 3526,
      "Ġspe": 3527,
      "tis": 3528,
      "rodu": 3529,
      "ality": 3530,
      "ective": 3531,
      "à¤°à¤¦": 3532,
      "threshold": 3533,
      "org": 3534,
      "ori": 3535,
      "Ġpur": 3536,
      "Ġpod": 3537,
      "Ġphase": 3538,
      "dev": 3539,
      "Ġatomic": 3540,
      "Ġcoh": 3541,
      "Ġcoord": 3542,
      "Ġcores": 3543,
      "Ġcorre": 3544,
      "Ġà¤ķà¤®": 3545,
      "tup": 3546,
      "Ġincoming": 3547,
      "Ġrepo": 3548,
      "Ġrequiring": 3549,
      "Ġep": 3550,
      "Ġeff": 3551,
      "oud": 3552,
      "Ġfollow": 3553,
      "Ġfault": 3554,
      "Ġword": 3555,
      "sen": 3556,
      "Ġhar": 3557,
      "ĠAR": 3558,
      "tance": 3559,
      "à¤²à¤Ĺ": 3560,
      "rator": 3561,
      "Ġà¤ªà¤¹": 3562,
      "à¤¯à¤µ": 3563,
      "Ġdict": 3564,
      "Ġà¤¸à¤¤": 3565,
      "irectional": 3566,
      "ĠHe": 3567,
      "ĠOver": 3568,
      "Ġopp": 3569,
      "Ġoption": 3570,
      "ĠSc": 3571,
      "ĠSub": 3572,
      "Ġnu": 3573,
      "Ġnominal": 3574,
      "Ġsepar": 3575,
      "andwidth": 3576,
      "loye": 3577,
      "Ġmid": 3578,
      "Ġmatch": 3579,
      "Ġban": 3580,
      "Ġbind": 3581,
      "Ġborrow": 3582,
      "à¤¸à¤¸": 3583,
      "à¤¸à¤µà¤°": 3584,
      "Ġconver": 3585,
      "Ġà¤®à¤¹": 3586,
      "torical": 3587,
      "Ġvs": 3588,
      "topic": 3589,
      "à¥Īà¤Ĥ:": 3590,
      "pati": 3591,
      "default": 3592,
      "Ġgive": 3593,
      "actions": 3594,
      "odern": 3595,
      "paths": 3596,
      "Ġà¤īà¤¨": 3597,
      "astic": 3598,
      "Ġdead": 3599,
      "Ġdemon": 3600,
      "ĠLo": 3601,
      "matic": 3602,
      "usr": 3603,
      "Ġsame": 3604,
      "iration": 3605,
      "irical": 3606,
      "ircular": 3607,
      "Ġstar": 3608,
      "Ġloc": 3609,
      "Ġlook": 3610,
      "ĠTra": 3611,
      "ĠThis": 3612,
      "mpl": 3613,
      "Ġallo": 3614,
      "Ġchannel": 3615,
      "Ġobserv": 3616,
      "à¤ıà¤«": 3617,
      "ĠDuring": 3618,
      "keys": 3619,
      "Ġworkflow": 3620,
      "ĠREST": 3621,
      "ĠRows": 3622,
      "ases": 3623,
      "ticle": 3624,
      "à¤¬à¤°": 3625,
      "Ġexis": 3626,
      "ĠNo": 3627,
      "Ġtrig": 3628,
      "Ġà¤ıà¤¸": 3629,
      "Ġbytes": 3630,
      "Ġdisco": 3631,
      "ĠBy": 3632,
      "exp": 3633,
      "ĠID": 3634,
      "ĠInstruc": 3635,
      "Ġappend": 3636,
      "Ġcompile": 3637,
      "Ġcompil": 3638,
      "Ġcomputes": 3639,
      "Ġteam": 3640,
      "Ġbeli": 3641,
      "ĠKaf": 3642,
      "Ġpoint": 3643,
      "à¤ĩà¤ķ": 3644,
      "Ġprimary": 3645,
      "Ġattrib": 3646,
      "Ġinterfaces": 3647,
      "Ġsubsequ": 3648,
      "bytes": 3649,
      "shot": 3650,
      "gateway": 3651,
      "ĠJab": 3652,
      "Ġconcurrency": 3653,
      "Ġimage": 3654,
      "ĠContent": 3655,
      "orem": 3656,
      "Ġclasses": 3657,
      "Ġoptimize": 3658,
      "idence": 3659,
      "Ġscans": 3660,
      "Ġconnections": 3661,
      "Ġfragmentation": 3662,
      "Ġstage": 3663,
      "Ġstatic": 3664,
      "Ġsockets": 3665,
      "Ġoutco": 3666,
      "ĠComp": 3667,
      "Ġmodels": 3668,
      "Ġengineers": 3669,
      "Ġtak": 3670,
      "Ġtaaki": 3671,
      "Ġfixed": 3672,
      "Ġstreams": 3673,
      "Ġguarantees": 3674,
      "Ġintrodu": 3675,
      "Ġpatterns": 3676,
      "Ġvertices": 3677,
      "Ġdepth": 3678,
      "Ġ],": 3679,
      "ĠAnalysis": 3680,
      "Ġimport": 3681,
      "Ġreducing": 3682,
      "Ġhypothesis": 3683,
      "latest": 3684,
      "Ġsimult": 3685,
      "ĠAPIs": 3686,
      "Ġmechanism": 3687,
      "Ġunderlying": 3688,
      "Ġpoints": 3689,
      "Ġpointers": 3690,
      "ĠQu": 3691,
      "Ġempirical": 3692,
      "Ġproperties": 3693,
      "Ġpartition": 3694,
      "ECT": 3695,
      "Ġ70": 3696,
      "Ġprinciples": 3697,
      "Ċĉĉ": 3698,
      "Ġrecord": 3699,
      "Ġallocation": 3700,
      "ELECT": 3701,
      "Ġcharac": 3702,
      "Ġtempor": 3703,
      "Ġsockaddr": 3704,
      "Actual": 3705,
      "socket": 3706,
      "aneously": 3707,
      "Ġshortest": 3708,
      "Ġconstraints": 3709,
      "DIR": 3710,
      "Ġargument": 3711,
      "Ġstrategies": 3712,
      "Bug": 3713,
      "Ġdemonstr": 3714,
      "ĠInstruction": 3715,
      "ĠKafka": 3716,
      "Ġsimultaneously": 3717,
      "\">": 3718,
      "'.": 3719,
      "']": 3720,
      "'à¥¤": 3721,
      "'\"}}": 3722,
      "(\"": 3723,
      ")\"}}": 3724,
      "*)": 3725,
      "32": 3726,
      "82": 3727,
      "92": 3728,
      "</": 3729,
      "AN": 3730,
      "Asy": 3731,
      "DP": 3732,
      "EN": 3733,
      "FI": 3734,
      "HER": 3735,
      "IG": 3736,
      "II": 3737,
      "ISC": 3738,
      "Issue": 3739,
      "Log": 3740,
      "MA": 3741,
      "Ms": 3742,
      "NA": 3743,
      "Python": 3744,
      "RE": 3745,
      "Resource": 3746,
      "Soc": 3747,
      "Sprint": 3748,
      "TI": 3749,
      "UP": 3750,
      "Vector": 3751,
      "`).": 3752,
      "aa": 3753,
      "aj": 3754,
      "bin": 3755,
      "culate": 3756,
      "cted": 3757,
      "custom": 3758,
      "ents": 3759,
      "fac": 3760,
      "frame": 3761,
      "itr": 3762,
      "ious": 3763,
      "jpg": 3764,
      "ml": 3765,
      "mmetric": 3766,
      "nding": 3767,
      "neck": 3768,
      "pad": 3769,
      "ptor": 3770,
      "patch": 3771,
      "rro": 3772,
      "runtime": 3773,
      "uti": 3774,
      "use": 3775,
      "valid": 3776,
      "with": 3777,
      "yco": 3778,
      "zes": 3779,
      "Ġce": 3780,
      "Ġtu": 3781,
      "Ġvo": 3782,
      "Ġlear": 3783,
      "ĠDes": 3784,
      "ĠMulti": 3785,
      "Ġcent": 3786,
      "Ġà¤Ľ": 3787,
      "team": 3788,
      "tepad": 3789,
      "Ġ\"#": 3790,
      "era": 3791,
      "ert": 3792,
      "ergy": 3793,
      "react": 3794,
      "recursive": 3795,
      "arly": 3796,
      "article": 3797,
      "Ġsk": 3798,
      "Ġsco": 3799,
      "Ġscal": 3800,
      "rong": 3801,
      "als": 3802,
      "only": 3803,
      "ved": 3804,
      "oriz": 3805,
      "meta": 3806,
      "isms": 3807,
      "vere": 3808,
      "service": 3809,
      "Ġassu": 3810,
      "Ġcoun": 3811,
      "Ġà¤ķà¤Ī": 3812,
      "Ġinvo": 3813,
      "Ġinformation": 3814,
      "Ġreside": 3815,
      "Ġrecursive": 3816,
      "Ġrevenue": 3817,
      "Ġknowled": 3818,
      "Ġevide": 3819,
      "Ġembed": 3820,
      "acha": 3821,
      "Ġful": 3822,
      "Ġfla": 3823,
      "Ġfirst": 3824,
      "Ġwe": 3825,
      "Ġwere": 3826,
      "semantic": 3827,
      "Ġhon": 3828,
      "à¤¨à¤¤": 3829,
      "dings": 3830,
      "ĠAd": 3831,
      "ĠAl": 3832,
      "nap": 3833,
      "à¤Łà¤²": 3834,
      "à¤Łà¤µ": 3835,
      "à¥Ģ'": 3836,
      "rative": 3837,
      "Ġà¤ªà¤¤": 3838,
      "edis": 3839,
      "Ġdup": 3840,
      "Ġdir": 3841,
      "Ġdue": 3842,
      "Ġdrop": 3843,
      "Ġdrive": 3844,
      "Ġà¤¸à¤Ł": 3845,
      "percent": 3846,
      "Ġcross": 3847,
      "Ġcertificate": 3848,
      "ĠON": 3849,
      "ĠSingle": 3850,
      "ĠSHA": 3851,
      "ĠSync": 3852,
      "conom": 3853,
      "Ġnum": 3854,
      "à¤®à¤°": 3855,
      "à¤®à¤¸": 3856,
      "Ġmerge": 3857,
      "Ġbi": 3858,
      "Ġbad": 3859,
      "Ġbot": 3860,
      "Ġbhi": 3861,
      "Ġ2026": 3862,
      "sph": 3863,
      "sport": 3864,
      "space": 3865,
      "Ġcondi": 3866,
      "Ġconsum": 3867,
      "\"}}}": 3868,
      "ets": 3869,
      "uristic": 3870,
      "Ġvolu": 3871,
      "std": 3872,
      "start": 3873,
      "ĠVal": 3874,
      "defined": 3875,
      "Ġgo": 3876,
      "idirectional": 3877,
      "à¤ļà¤°": 3878,
      "Ġranges": 3879,
      "wav": 3880,
      "Ġà¤īà¤¨à¤ķ": 3881,
      "ĠClass": 3882,
      "Ġdeli": 3883,
      "male": 3884,
      "Ġà¤ĩà¤µ": 3885,
      "izing": 3886,
      "oci": 3887,
      "Ġà¤²à¤°": 3888,
      "ĠPre": 3889,
      "ĠPar": 3890,
      "ĠPlease": 3891,
      "pende": 3892,
      "notepad": 3893,
      "Ġcommands": 3894,
      "Ġà¤ħà¤°": 3895,
      "Ġworker": 3896,
      "ĠTrees": 3897,
      "Ġalong": 3898,
      "Ġalternative": 3899,
      "Ġchanges": 3900,
      "female": 3901,
      "Ġobject": 3902,
      "ĠDatabase": 3903,
      "Ġà¤Ĩà¤°": 3904,
      "Ġà¤Ĩà¤µ": 3905,
      "Ġà¤Ĩà¤Ī": 3906,
      "à¤¬à¤²": 3907,
      "Ġexclus": 3908,
      "ĠNone": 3909,
      "ĠNetwork": 3910,
      "Ġà¤¬à¤¦": 3911,
      "boot": 3912,
      "oks": 3913,
      "à¤§à¤¤": 3914,
      "mbers": 3915,
      "mbinator": 3916,
      "Ġenergy": 3917,
      "Ġprefers": 3918,
      "exe": 3919,
      "Ġà¤¤à¤¤": 3920,
      "Ġà¤¤à¤ķ": 3921,
      "Ġà¤¤à¤ķà¤¨": 3922,
      "ĠIP": 3923,
      "ĠIndex": 3924,
      "Ġshould": 3925,
      "ĠWh": 3926,
      "Ġ50": 3927,
      "Ġtransform": 3928,
      "Ġtransfer": 3929,
      "duction": 3930,
      "à¤ĩà¤Ł": 3931,
      "pher": 3932,
      "Ġà¤īà¤¸à¤ķ": 3933,
      "abilities": 3934,
      "ĠGraph": 3935,
      "ĠGateway": 3936,
      "ĠGener": 3937,
      "backup": 3938,
      "ĠUR": 3939,
      "ively": 3940,
      "ĠProcess": 3941,
      "Ġjaise": 3942,
      "Ġdefin": 3943,
      "news": 3944,
      "Ġmass": 3945,
      "Ġcontrollers": 3946,
      "onents": 3947,
      "Ġprivate": 3948,
      "Ġnoti": 3949,
      "itecture": 3950,
      "lica": 3951,
      "tleneck": 3952,
      "Ġà¤¸à¤®à¤¯": 3953,
      "types": 3954,
      "Ġimpro": 3955,
      "transformer": 3956,
      "volution": 3957,
      "Ġpages": 3958,
      "Ġdownstream": 3959,
      "STable": 3960,
      "Ġschem": 3961,
      "ĠControl": 3962,
      "urls": 3963,
      "Ġaround": 3964,
      "confidence": 3965,
      "Ġcreated": 3966,
      "Ġblocking": 3967,
      "Ġwherein": 3968,
      "Ġcontains": 3969,
      "Ġcontainer": 3970,
      "rank": 3971,
      "Ġvalues": 3972,
      "Ġnews": 3973,
      "atory": 3974,
      "Ġoutput": 3975,
      "Ġordering": 3976,
      "Ġgeneration": 3977,
      "http": 3978,
      "Project": 3979,
      "à¤ħà¤ª": 3980,
      "Ġ101": 3981,
      "Config": 3982,
      "Ġdiagnostics": 3983,
      "Backup": 3984,
      "blocking": 3985,
      "attery": 3986,
      "Ġconfiguration": 3987,
      "Ġminimal": 3988,
      "Ġminimum": 3989,
      ")))\"}}": 3990,
      "Ġrendering": 3991,
      "Ġdescriptor": 3992,
      "ATE": 3993,
      "subject": 3994,
      "submit": 3995,
      "Ġpublic": 3996,
      "Ġedge": 3997,
      "Ġefficiently": 3998,
      "Ġsemantics": 3999,
      "Ġà¤Ĺà¤£à¤¨": 4000,
      "Ġcompletely": 4001,
      "Ġframework": 4002,
      "Ġdependency": 4003,
      "Ġeliminating": 4004,
      "Ġpoly": 4005,
      "Ġinteger": 4006,
      "Ġintegrity": 4007,
      "Ġhistorical": 4008,
      "Ġmonitor": 4009,
      "Ġgreet": 4010,
      "Ġiterative": 4011,
      "Ġrelationshi": 4012,
      "preferred": 4013,
      "preferences": 4014,
      "Ġauthenticate": 4015,
      "greSQL": 4016,
      "vailable": 4017,
      "Ġstruct": 4018,
      "Ġcaused": 4019,
      "Ġblack": 4020,
      "Ġcomputational": 4021,
      "Ġfinished": 4022,
      "helper": 4023,
      "ĠInterface": 4024,
      "Ġsmaller": 4025,
      "ostgreSQL": 4026,
      "ĠUnion": 4027,
      "Update": 4028,
      "camera": 4029,
      "driven": 4030,
      "olean": 4031,
      "Ġchoose": 4032,
      "Ġlightweight": 4033,
      "Ġlibraries": 4034,
      "Ġenforces": 4035,
      "Ġdeclar": 4036,
      "Team": 4037,
      "btn": 4038,
      "stitu": 4039,
      "trending": 4040,
      "Ġliste": 4041,
      "Ġmatching": 4042,
      "Ġgiven": 4043,
      "Ġtrigger": 4044,
      "Ġbelief": 4045,
      "']\",": 4046,
      "HERE": 4047,
      "rror": 4048,
      "utils": 4049,
      "ycombinator": 4050,
      "Ġknowledge": 4051,
      "Ġevidence": 4052,
      "Ġdirty": 4053,
      "Ġvolume": 4054,
      "Ġschemas": 4055,
      "\")": 4056,
      "();": 4057,
      ")\",": 4058,
      "));": 4059,
      "++": 4060,
      "34": 4061,
      "90": 4062,
      "AS": 4063,
      "Cache": 4064,
      "DB": 4065,
      "DD": 4066,
      "Di": 4067,
      "GP": 4068,
      "Ite": 4069,
      "La": 4070,
      "Le": 4071,
      "PE": 4072,
      "PO": 4073,
      "SA": 4074,
      "Ser": 4075,
      "Sign": 4076,
      "Tree": 4077,
      "TCP": 4078,
      "Trees": 4079,
      "Type": 4080,
      "Uni": 4081,
      "VM": 4082,
      "Var": 4083,
      "are": 4084,
      "ati": 4085,
      "asu": 4086,
      "ata": 4087,
      "ators": 4088,
      "class": 4089,
      "do": 4090,
      "dget": 4091,
      "free": 4092,
      "fety": 4093,
      "gree": 4094,
      "iB": 4095
    },
    "merges": [
      [
        "à",
        "¤"
      ],
      [
        "à",
        "¥"
      ],
      [
        "i",
        "n"
      ],
      [
        "Ġ",
        "à¤"
      ],
      [
        "t",
        "e"
      ],
      [
        "Ġ",
        "\""
      ],
      [
        "e",
        "r"
      ],
      [
        "\"",
        ":"
      ],
      [
        "r",
        "e"
      ],
      [
        "a",
        "n"
      ],
      [
        "<",
        "|"
      ],
      [
        "|",
        ">"
      ],
      [
        "t",
        "o"
      ],
      [
        "c",
        "o"
      ],
      [
        "a",
        "r"
      ],
      [
        "n",
        "t"
      ],
      [
        "o",
        "l"
      ],
      [
        "Ġ",
        "s"
      ],
      [
        "t",
        "i"
      ],
      [
        "r",
        "o"
      ],
      [
        "{",
        "\""
      ],
      [
        "l",
        "e"
      ],
      [
        "s",
        "s"
      ],
      [
        "to",
        "ol"
      ],
      [
        "a",
        "l"
      ],
      [
        "e",
        "c"
      ],
      [
        "o",
        "n"
      ],
      [
        "v",
        "e"
      ],
      [
        "à¤",
        "°"
      ],
      [
        "\"",
        ","
      ],
      [
        "in",
        "g"
      ],
      [
        "t",
        "h"
      ],
      [
        "o",
        "r"
      ],
      [
        "Ġ",
        "an"
      ],
      [
        "m",
        "e"
      ],
      [
        "s",
        "u"
      ],
      [
        "i",
        "s"
      ],
      [
        "Ġ",
        "p"
      ],
      [
        "à¤",
        "¾"
      ],
      [
        "d",
        "e"
      ],
      [
        "à¥",
        "ĩ"
      ],
      [
        "c",
        "e"
      ],
      [
        "v",
        "er"
      ],
      [
        "s",
        "er"
      ],
      [
        "Ġ",
        "a"
      ],
      [
        "Ġ",
        "Ġ"
      ],
      [
        "Ġ",
        "co"
      ],
      [
        "à¤",
        "¿"
      ],
      [
        "i",
        "f"
      ],
      [
        "ec",
        "u"
      ],
      [
        "Ġà¤",
        "ķ"
      ],
      [
        "à¥",
        "į"
      ],
      [
        "t",
        "u"
      ],
      [
        "a",
        "te"
      ],
      [
        "Ġan",
        "d"
      ],
      [
        "Ġ",
        "in"
      ],
      [
        "g",
        "e"
      ],
      [
        "à¤",
        "Ĥ"
      ],
      [
        "Ġ",
        "re"
      ],
      [
        "Ġ",
        "k"
      ],
      [
        "ti",
        "on"
      ],
      [
        "ver",
        "if"
      ],
      [
        "Ġ",
        "e"
      ],
      [
        "o",
        "u"
      ],
      [
        "a",
        "c"
      ],
      [
        "x",
        "ecu"
      ],
      [
        "i",
        "c"
      ],
      [
        "xecu",
        "te"
      ],
      [
        "Ġ",
        "f"
      ],
      [
        "Ġ",
        "w"
      ],
      [
        "t",
        "a"
      ],
      [
        "<|",
        "tool"
      ],
      [
        "<|tool",
        "_"
      ],
      [
        "l",
        "y"
      ],
      [
        "t",
        "r"
      ],
      [
        "a",
        "ge"
      ],
      [
        "ti",
        "ve"
      ],
      [
        "q",
        "u"
      ],
      [
        "r",
        "i"
      ],
      [
        "s",
        "e"
      ],
      [
        "ce",
        "ss"
      ],
      [
        "ro",
        "w"
      ],
      [
        "row",
        "ser"
      ],
      [
        "b",
        "rowser"
      ],
      [
        "l",
        "t"
      ],
      [
        "su",
        "lt"
      ],
      [
        "Ġp",
        "ro"
      ],
      [
        "c",
        "cess"
      ],
      [
        "à¤",
        "ª"
      ],
      [
        "Ġ",
        "h"
      ],
      [
        "s",
        "te"
      ],
      [
        "u",
        "l"
      ],
      [
        "nt",
        "s"
      ],
      [
        "\"",
        "}"
      ],
      [
        "te",
        "nt"
      ],
      [
        "m",
        "m"
      ],
      [
        "à¤",
        "¨"
      ],
      [
        "Ġk",
        "ar"
      ],
      [
        "i",
        "t"
      ],
      [
        "d",
        "ing"
      ],
      [
        "Ġ",
        "tool"
      ],
      [
        "Ġ",
        "A"
      ],
      [
        "à¤",
        "¤"
      ],
      [
        "n",
        "a"
      ],
      [
        "g",
        "u"
      ],
      [
        "Ġ",
        "th"
      ],
      [
        "tr",
        "u"
      ],
      [
        "c",
        "al"
      ],
      [
        "y",
        "ste"
      ],
      [
        "yste",
        "m"
      ],
      [
        "verif",
        "y"
      ],
      [
        "à¥",
        "Ĥ"
      ],
      [
        "t",
        "an"
      ],
      [
        "o",
        "w"
      ],
      [
        "in",
        "al"
      ],
      [
        "me",
        "nts"
      ],
      [
        "Ġe",
        "xecute"
      ],
      [
        "c",
        "h"
      ],
      [
        "a",
        "i"
      ],
      [
        "o",
        "m"
      ],
      [
        "age",
        "nt"
      ],
      [
        "ar",
        "gu"
      ],
      [
        "argu",
        "ments"
      ],
      [
        "u",
        "n"
      ],
      [
        "re",
        "sult"
      ],
      [
        "ar",
        "y"
      ],
      [
        "to",
        "n"
      ],
      [
        "ss",
        "is"
      ],
      [
        "à¤",
        "Ł"
      ],
      [
        "tu",
        "s"
      ],
      [
        "ta",
        "tus"
      ],
      [
        "ssis",
        "tan"
      ],
      [
        "a",
        "tion"
      ],
      [
        "à¤",
        "²"
      ],
      [
        "i",
        "th"
      ],
      [
        "à¥ĩ",
        "à¤Ĥ"
      ],
      [
        "Ġth",
        "e"
      ],
      [
        "e",
        "n"
      ],
      [
        "l",
        "an"
      ],
      [
        "cal",
        "l"
      ],
      [
        "ac",
        "tive"
      ],
      [
        "Ġà¤ķ",
        "à¤°"
      ],
      [
        "à¥",
        "Ģ"
      ],
      [
        "Ġ",
        "E"
      ],
      [
        "ssistan",
        "t"
      ],
      [
        "Ġs",
        "u"
      ],
      [
        "Y",
        "ou"
      ],
      [
        "Ġw",
        "ith"
      ],
      [
        "r",
        "a"
      ],
      [
        "Ġà¤",
        "ª"
      ],
      [
        "na",
        "me"
      ],
      [
        "à¤",
        "¯"
      ],
      [
        "i",
        "le"
      ],
      [
        "e",
        "s"
      ],
      [
        "s",
        "tatus"
      ],
      [
        "à¥",
        "Ī"
      ],
      [
        "a",
        "t"
      ],
      [
        "e",
        "d"
      ],
      [
        "v",
        "i"
      ],
      [
        "u",
        "ton"
      ],
      [
        "uton",
        "om"
      ],
      [
        "Ġ",
        "d"
      ],
      [
        "Ġà¤",
        "¹"
      ],
      [
        "à¤",
        "ķ"
      ],
      [
        "<|",
        "verify"
      ],
      [
        "<|verify",
        "|>"
      ],
      [
        "Ġsu",
        "ccess"
      ],
      [
        "Ġà¤",
        "¸"
      ],
      [
        "i",
        "re"
      ],
      [
        "<|tool_",
        "result"
      ],
      [
        "<|tool_",
        "call"
      ],
      [
        "<|tool_result",
        "|>"
      ],
      [
        "<|tool_call",
        "|>"
      ],
      [
        "l",
        "is"
      ],
      [
        "or",
        "y"
      ],
      [
        "te",
        "x"
      ],
      [
        "in",
        "d"
      ],
      [
        "Ġ",
        "tru"
      ],
      [
        "k",
        "e"
      ],
      [
        "f",
        "inal"
      ],
      [
        "in",
        "tent"
      ],
      [
        "<|",
        "final"
      ],
      [
        "<|",
        "intent"
      ],
      [
        "Ġtru",
        "e"
      ],
      [
        "<|final",
        "|>"
      ],
      [
        "<|intent",
        "|>"
      ],
      [
        "Ġ",
        "{\""
      ],
      [
        "Ġ",
        "H"
      ],
      [
        "p",
        "er"
      ],
      [
        "à¥",
        "ĭ"
      ],
      [
        "à¥",
        "¤"
      ],
      [
        "Ġ",
        "browser"
      ],
      [
        "a",
        "m"
      ],
      [
        "ve",
        "l"
      ],
      [
        "qu",
        "ire"
      ],
      [
        "p",
        "y"
      ],
      [
        "n",
        "i"
      ],
      [
        "Ġ",
        "c"
      ],
      [
        "Ġ",
        "O"
      ],
      [
        "utonom",
        "y"
      ],
      [
        "Ġ",
        "o"
      ],
      [
        "à¥",
        "ģ"
      ],
      [
        "Ġkar",
        "o"
      ],
      [
        "Ġ",
        "S"
      ],
      [
        "lis",
        "h"
      ],
      [
        "Ġf",
        "or"
      ],
      [
        "f",
        "ul"
      ],
      [
        "co",
        "de"
      ],
      [
        "mm",
        "ary"
      ],
      [
        "quire",
        "s"
      ],
      [
        "co",
        "n"
      ],
      [
        "co",
        "ding"
      ],
      [
        "Ġ",
        "n"
      ],
      [
        "c",
        "ate"
      ],
      [
        "tex",
        "t"
      ],
      [
        "u",
        "ser"
      ],
      [
        "Ġ",
        "verif"
      ],
      [
        "su",
        "mmary"
      ],
      [
        "re",
        "quires"
      ],
      [
        "Ġexecute",
        "d"
      ],
      [
        "Ġsuccess",
        "ful"
      ],
      [
        "Ġsuccessful",
        "ly"
      ],
      [
        "g",
        "ory"
      ],
      [
        "cate",
        "gory"
      ],
      [
        "ĠĠ",
        "ĠĠ"
      ],
      [
        "à¤",
        "®"
      ],
      [
        "Ġs",
        "e"
      ],
      [
        "an",
        "d"
      ],
      [
        "l",
        "o"
      ],
      [
        "f",
        "ile"
      ],
      [
        "v",
        "o"
      ],
      [
        "ar",
        "ch"
      ],
      [
        "N",
        "ai"
      ],
      [
        "Nai",
        "ra"
      ],
      [
        "c",
        "ri"
      ],
      [
        "à¤",
        "·"
      ],
      [
        "le",
        "vel"
      ],
      [
        "Ġ",
        "m"
      ],
      [
        "r",
        "n"
      ],
      [
        "g",
        "it"
      ],
      [
        "a",
        "utonomy"
      ],
      [
        "p",
        "t"
      ],
      [
        "Ġ",
        "b"
      ],
      [
        "a",
        "in"
      ],
      [
        "p",
        "lan"
      ],
      [
        "su",
        "ccess"
      ],
      [
        "<|",
        "plan"
      ],
      [
        "<|plan",
        "|>"
      ],
      [
        "Ġ",
        "2"
      ],
      [
        "s",
        "p"
      ],
      [
        "à¤",
        "µ"
      ],
      [
        "à¤",
        "¸"
      ],
      [
        "cri",
        "pt"
      ],
      [
        "Ġ",
        "("
      ],
      [
        "or",
        "t"
      ],
      [
        "Ġa",
        "re"
      ],
      [
        "s",
        "ystem"
      ],
      [
        "ĠE",
        "xecute"
      ],
      [
        "Ġco",
        "n"
      ],
      [
        "0",
        "0"
      ],
      [
        "l",
        "ow"
      ],
      [
        "i",
        "ed"
      ],
      [
        "er",
        "s"
      ],
      [
        "ic",
        "k"
      ],
      [
        "Ġ",
        "Naira"
      ],
      [
        "ar",
        "r"
      ],
      [
        "Ġco",
        "mm"
      ],
      [
        "at",
        "ing"
      ],
      [
        "vi",
        "de"
      ],
      [
        "i",
        "on"
      ],
      [
        "tu",
        "re"
      ],
      [
        "Ġ",
        "3"
      ],
      [
        "Ġ",
        "qu"
      ],
      [
        "à¤",
        "¦"
      ],
      [
        "g",
        "ni"
      ],
      [
        "ĠA",
        "ssistant"
      ],
      [
        "vo",
        "ke"
      ],
      [
        "ic",
        "ation"
      ],
      [
        "Ġco",
        "ding"
      ],
      [
        "per",
        "ating"
      ],
      [
        "ĠA",
        "I"
      ],
      [
        "Ġpro",
        "vide"
      ],
      [
        "ec",
        "t"
      ],
      [
        "Ġ",
        "1"
      ],
      [
        "y",
        "a"
      ],
      [
        "ĠS",
        "ystem"
      ],
      [
        "ĠO",
        "perating"
      ],
      [
        "r",
        "s"
      ],
      [
        "Ġpro",
        "active"
      ],
      [
        "p",
        "le"
      ],
      [
        "Ġw",
        "h"
      ],
      [
        "T",
        "o"
      ],
      [
        "Ġ",
        "You"
      ],
      [
        "con",
        "text"
      ],
      [
        "a",
        "ssistant"
      ],
      [
        "<|",
        "user"
      ],
      [
        "<|",
        "system"
      ],
      [
        "<|",
        "assistant"
      ],
      [
        "<|user",
        "|>"
      ],
      [
        "<|system",
        "|>"
      ],
      [
        "<|assistant",
        "|>"
      ],
      [
        "ri",
        "te"
      ],
      [
        "Ġs",
        "ecu"
      ],
      [
        "Ġ2",
        "00"
      ],
      [
        "To",
        "ol"
      ],
      [
        "Ġ",
        "to"
      ],
      [
        "a",
        "d"
      ],
      [
        "à¤",
        "£"
      ],
      [
        "ind",
        "ow"
      ],
      [
        "s",
        "ort"
      ],
      [
        "se",
        "arch"
      ],
      [
        "ick",
        "sort"
      ],
      [
        "\"}",
        "}"
      ],
      [
        "Ġqu",
        "icksort"
      ],
      [
        "tu",
        "rn"
      ],
      [
        "le",
        "ar"
      ],
      [
        "a",
        "ve"
      ],
      [
        "tru",
        "c"
      ],
      [
        "Ġre",
        "turn"
      ],
      [
        "à¤",
        "¶"
      ],
      [
        "n",
        "g"
      ],
      [
        "ĠĠ",
        "Ġ"
      ],
      [
        "w",
        "rite"
      ],
      [
        "Ġà¤",
        "¨"
      ],
      [
        "er",
        "ro"
      ],
      [
        "w",
        "indow"
      ],
      [
        "Ġ",
        "F"
      ],
      [
        "p",
        "p"
      ],
      [
        "e",
        "t"
      ],
      [
        "}",
        "}"
      ],
      [
        "Ġ",
        "erro"
      ],
      [
        "e",
        "ss"
      ],
      [
        "u",
        "t"
      ],
      [
        "Ġà¤",
        "®"
      ],
      [
        "Ġ",
        "verify"
      ],
      [
        "to",
        "r"
      ],
      [
        "ver",
        "y"
      ],
      [
        "truc",
        "ture"
      ],
      [
        "an",
        "ce"
      ],
      [
        "Ġerro",
        "rs"
      ],
      [
        "Ġa",
        "d"
      ],
      [
        "u",
        "r"
      ],
      [
        "ĠE",
        "ng"
      ],
      [
        "à¤",
        "Ĺ"
      ],
      [
        "s",
        "w"
      ],
      [
        "ic",
        "ate"
      ],
      [
        "Ġh",
        "ai"
      ],
      [
        "Ġs",
        "tructure"
      ],
      [
        "Ġ",
        "v"
      ],
      [
        "and",
        "le"
      ],
      [
        "co",
        "l"
      ],
      [
        "to",
        "col"
      ],
      [
        "i",
        "ya"
      ],
      [
        "to",
        "p"
      ],
      [
        "le",
        "ss"
      ],
      [
        "Ġre",
        "co"
      ],
      [
        "am",
        "ple"
      ],
      [
        "Ġfor",
        "m"
      ],
      [
        "Ġwh",
        "en"
      ],
      [
        "gni",
        "tive"
      ],
      [
        "Ġre",
        "sult"
      ],
      [
        "Ġco",
        "gnitive"
      ],
      [
        "Ġc",
        "lear"
      ],
      [
        "Ġh",
        "andle"
      ],
      [
        "ing",
        "lish"
      ],
      [
        "Ġpro",
        "tocol"
      ],
      [
        "ind",
        "i"
      ],
      [
        "ĠH",
        "inglish"
      ],
      [
        "ĠH",
        "indi"
      ],
      [
        "Ġcomm",
        "un"
      ],
      [
        "ĠEng",
        "lish"
      ],
      [
        "ul",
        "ate"
      ],
      [
        "sp",
        "ect"
      ],
      [
        "Ġin",
        "spect"
      ],
      [
        "Ġp",
        "lan"
      ],
      [
        "Ġf",
        "inal"
      ],
      [
        "Ġresult",
        "s"
      ],
      [
        "s",
        "ample"
      ],
      [
        "ol",
        "low"
      ],
      [
        "D",
        "es"
      ],
      [
        "ec",
        "ess"
      ],
      [
        "Ġstructure",
        "d"
      ],
      [
        "ecess",
        "ary"
      ],
      [
        "v",
        "ance"
      ],
      [
        "Ġsecu",
        "re"
      ],
      [
        "Ġreco",
        "very"
      ],
      [
        "Ġtool",
        "s"
      ],
      [
        "Ġn",
        "ecessary"
      ],
      [
        "Ġad",
        "vance"
      ],
      [
        "Ġin",
        "tent"
      ],
      [
        "à¥Ī",
        "à¤Ĥ"
      ],
      [
        "Ġverif",
        "ication"
      ],
      [
        "am",
        "less"
      ],
      [
        "Ġverif",
        "ied"
      ],
      [
        "Ġse",
        "amless"
      ],
      [
        "Ġcommun",
        "icate"
      ],
      [
        "Ġadvance",
        "d"
      ],
      [
        "ĠF",
        "ollow"
      ],
      [
        "Ġform",
        "ulate"
      ],
      [
        "Ġseamless",
        "ly"
      ],
      [
        "k",
        "top"
      ],
      [
        "Ġan",
        "sw"
      ],
      [
        "Ġin",
        "voke"
      ],
      [
        "Des",
        "ktop"
      ],
      [
        "Ġansw",
        "ers"
      ],
      [
        "à¤ª",
        "à¤°"
      ],
      [
        "Ġa",
        "c"
      ],
      [
        "s",
        "t"
      ],
      [
        "Ġ",
        "V"
      ],
      [
        "p",
        "a"
      ],
      [
        "de",
        "f"
      ],
      [
        "Ġà¤",
        "ľ"
      ],
      [
        "Ġ",
        "["
      ],
      [
        "Ġà¤",
        "Ł"
      ],
      [
        "c",
        "re"
      ],
      [
        "Ġà¤",
        "ĳ"
      ],
      [
        "à¤¶",
        "à¤¨"
      ],
      [
        "t",
        "y"
      ],
      [
        "à¥Ī",
        "à¥¤"
      ],
      [
        "Ġà¤ĳ",
        "à¤ªà¤°"
      ],
      [
        "Ġ",
        "g"
      ],
      [
        "i",
        "d"
      ],
      [
        "ou",
        "s"
      ],
      [
        "Ġ",
        "me"
      ],
      [
        "à¤",
        "ļ"
      ],
      [
        "g",
        "h"
      ],
      [
        "Ġ",
        "arguments"
      ],
      [
        "Ġp",
        "c"
      ],
      [
        "ac",
        "tion"
      ],
      [
        "Ġ",
        "r"
      ],
      [
        "w",
        "a"
      ],
      [
        "is",
        "ion"
      ],
      [
        "Ġk",
        "e"
      ],
      [
        "o",
        "d"
      ],
      [
        "l",
        "i"
      ],
      [
        "result",
        "s"
      ],
      [
        "s",
        "cript"
      ],
      [
        ")",
        ":"
      ],
      [
        "]",
        "}"
      ],
      [
        "Ġà¤",
        "¦"
      ],
      [
        "Ġ",
        "is"
      ],
      [
        "f",
        "or"
      ],
      [
        "Ġs",
        "cript"
      ],
      [
        "pa",
        "th"
      ],
      [
        "Ġ",
        "arr"
      ],
      [
        "it",
        "y"
      ],
      [
        "à¤",
        "ľ"
      ],
      [
        "Ġà¤",
        "ī"
      ],
      [
        "p",
        "c"
      ],
      [
        "Ġà¤",
        "Ķ"
      ],
      [
        "te",
        "r"
      ],
      [
        "Ġà¤Ķ",
        "à¤°"
      ],
      [
        "a",
        "s"
      ],
      [
        "Ġ",
        "i"
      ],
      [
        "Ċ",
        "ĠĠĠĠ"
      ],
      [
        "ac",
        "k"
      ],
      [
        "I",
        "n"
      ],
      [
        "om",
        "ain"
      ],
      [
        "cre",
        "en"
      ],
      [
        "Ġr",
        "un"
      ],
      [
        "ta",
        "b"
      ],
      [
        "th",
        "on"
      ],
      [
        "Ġ",
        "C"
      ],
      [
        "Ġs",
        "ni"
      ],
      [
        "pp",
        "et"
      ],
      [
        "Ġsni",
        "ppet"
      ],
      [
        "ton",
        "e"
      ],
      [
        "à¤",
        "Ĩ"
      ],
      [
        "p",
        "ro"
      ],
      [
        "Ġ",
        "de"
      ],
      [
        "l",
        "a"
      ],
      [
        "à¤",
        "¡"
      ],
      [
        "Ġa",
        "ur"
      ],
      [
        "c",
        "t"
      ],
      [
        "Ġ",
        "L"
      ],
      [
        "Ġco",
        "nt"
      ],
      [
        "per",
        "ation"
      ],
      [
        "m",
        "a"
      ],
      [
        "u",
        "p"
      ],
      [
        "ar",
        "d"
      ],
      [
        "Ġà¤",
        "ĩ"
      ],
      [
        "à¥ĩà¤Ĥ",
        "à¥¤"
      ],
      [
        "Ġà¤ª",
        "à¤°"
      ],
      [
        "gh",
        "t"
      ],
      [
        "p",
        "ut"
      ],
      [
        "Ġo",
        "f"
      ],
      [
        "Ġs",
        "ystem"
      ],
      [
        "Ġh",
        "o"
      ],
      [
        "i",
        "l"
      ],
      [
        "Ġo",
        "peration"
      ],
      [
        "Ġà¤¸",
        "à¤"
      ],
      [
        "ri",
        "ty"
      ],
      [
        "wa",
        "re"
      ],
      [
        "h",
        "a"
      ],
      [
        "or",
        "k"
      ],
      [
        "for",
        "m"
      ],
      [
        "if",
        "ied"
      ],
      [
        "h",
        "e"
      ],
      [
        "u",
        "s"
      ],
      [
        "lo",
        "ad"
      ],
      [
        "Ġs",
        "a"
      ],
      [
        "Ġs",
        "tatus"
      ],
      [
        "o",
        "de"
      ],
      [
        "ti",
        "me"
      ],
      [
        "Ġn",
        "e"
      ],
      [
        "ul",
        "ti"
      ],
      [
        "i",
        "r"
      ],
      [
        "i",
        "z"
      ],
      [
        "à¤",
        "ģ"
      ],
      [
        "Ġs",
        "t"
      ],
      [
        "Ġs",
        "ave"
      ],
      [
        "M",
        "ain"
      ],
      [
        "o",
        "c"
      ],
      [
        "Ġ[",
        "\""
      ],
      [
        "n",
        "d"
      ],
      [
        "Ġ",
        "git"
      ],
      [
        "od",
        "ified"
      ],
      [
        "Ġà¤",
        "²"
      ],
      [
        "p",
        "e"
      ],
      [
        "r",
        "ol"
      ],
      [
        "à¤",
        "¥"
      ],
      [
        "Ġà¤ī",
        "à¤ª"
      ],
      [
        "Ġ",
        "P"
      ],
      [
        "de",
        "d"
      ],
      [
        "Ġkar",
        "na"
      ],
      [
        "p",
        "en"
      ],
      [
        "à¤²",
        "à¤¤"
      ],
      [
        "sp",
        "on"
      ],
      [
        "tor",
        "age"
      ],
      [
        "a",
        "p"
      ],
      [
        "Ċ",
        "ĠĠĠ"
      ],
      [
        "Ġà¤",
        "µ"
      ],
      [
        "Ġà¤īà¤ª",
        "à¤¯"
      ],
      [
        "n",
        "o"
      ],
      [
        "if",
        "y"
      ],
      [
        "con",
        "tent"
      ],
      [
        "Ġà¤",
        "Ĺ"
      ],
      [
        "ro",
        "un"
      ],
      [
        "al",
        "id"
      ],
      [
        "ou",
        "t"
      ],
      [
        "er",
        "y"
      ],
      [
        "Ġre",
        "spon"
      ],
      [
        "er",
        "form"
      ],
      [
        "Ġ",
        "lo"
      ],
      [
        "u",
        "e"
      ],
      [
        "Ġ",
        "user"
      ],
      [
        "al",
        "ly"
      ],
      [
        "s",
        "creen"
      ],
      [
        "Ġh",
        "ave"
      ],
      [
        "py",
        "thon"
      ],
      [
        "Ġcomm",
        "and"
      ],
      [
        "Ġ",
        "call"
      ],
      [
        "Ġà¤",
        "ħ"
      ],
      [
        "Ġk",
        "iya"
      ],
      [
        "Ġd",
        "iya"
      ],
      [
        "Ġrespon",
        "se"
      ],
      [
        "Ġv",
        "ision"
      ],
      [
        "Ġà¤ĩ",
        "à¤¨"
      ],
      [
        "te",
        "rn"
      ],
      [
        "ve",
        "nts"
      ],
      [
        "ma",
        "x"
      ],
      [
        "Main",
        "e"
      ],
      [
        "alid",
        "ate"
      ],
      [
        "Ġà¤¸à¤",
        "«"
      ],
      [
        "Ġà¤ĩà¤¨",
        "à¤ª"
      ],
      [
        "b",
        "e"
      ],
      [
        "Ġ",
        "0"
      ],
      [
        "se",
        "le"
      ],
      [
        "à¤µ",
        "à¤ķ"
      ],
      [
        "Ġà¤¸à¤«",
        "à¤²à¤¤"
      ],
      [
        "i",
        "es"
      ],
      [
        "Ġ",
        "Tool"
      ],
      [
        "à¤",
        "¹"
      ],
      [
        "à¤¾",
        "à¤ģ"
      ],
      [
        "b",
        "le"
      ],
      [
        "in",
        "e"
      ],
      [
        "ĠO",
        "ut"
      ],
      [
        "Ġac",
        "tive"
      ],
      [
        "P",
        "erform"
      ],
      [
        "in",
        "u"
      ],
      [
        "ĠV",
        "er"
      ],
      [
        "ĠL",
        "e"
      ],
      [
        ".",
        "\"}}"
      ],
      [
        "ĠV",
        "alidate"
      ],
      [
        "In",
        "voke"
      ],
      [
        "ĠOut",
        "put"
      ],
      [
        "ĠVer",
        "ify"
      ],
      [
        "Ġw",
        "ork"
      ],
      [
        "Ġ",
        "T"
      ],
      [
        "c",
        "w"
      ],
      [
        "m",
        "p"
      ],
      [
        "Ġ",
        "al"
      ],
      [
        "Ġ",
        "ch"
      ],
      [
        "cw",
        "d"
      ],
      [
        "de",
        "nt"
      ],
      [
        "f",
        "e"
      ],
      [
        "Ġf",
        "ile"
      ],
      [
        "ĠLe",
        "vel"
      ],
      [
        "qu",
        "ery"
      ],
      [
        "Ġo",
        "b"
      ],
      [
        "low",
        "s"
      ],
      [
        "i",
        "ce"
      ],
      [
        "s",
        "torage"
      ],
      [
        "Ġ",
        "'"
      ],
      [
        "\"",
        "]}"
      ],
      [
        "ro",
        "ss"
      ],
      [
        "à¤",
        "ı"
      ],
      [
        "Ġst",
        "ate"
      ],
      [
        "M",
        "ulti"
      ],
      [
        "ss",
        "ion"
      ],
      [
        "Ġ",
        "D"
      ],
      [
        "Ġre",
        "as"
      ],
      [
        "Ġreas",
        "on"
      ],
      [
        ")",
        ","
      ],
      [
        "Ġ\"",
        ".\"}}"
      ],
      [
        "vo",
        "ice"
      ],
      [
        "Ġd",
        "a"
      ],
      [
        "m",
        "ory"
      ],
      [
        "Ġ",
        "on"
      ],
      [
        "Ġreason",
        "ing"
      ],
      [
        "a",
        "ware"
      ],
      [
        "c",
        "tor"
      ],
      [
        "ou",
        "r"
      ],
      [
        "ste",
        "p"
      ],
      [
        "U",
        "ser"
      ],
      [
        "gni",
        "tion"
      ],
      [
        "Ġac",
        "ross"
      ],
      [
        "m",
        "odified"
      ],
      [
        "s",
        "code"
      ],
      [
        "Ġ",
        "{"
      ],
      [
        "co",
        "gnition"
      ],
      [
        "\"}",
        "]}"
      ],
      [
        "ke",
        "y"
      ],
      [
        "Ġ[",
        "{\""
      ],
      [
        "):",
        "\\"
      ],
      [
        "ge",
        "t"
      ],
      [
        "Ġwork",
        "f"
      ],
      [
        "ser",
        "ve"
      ],
      [
        "ai",
        "l"
      ],
      [
        "ow",
        "n"
      ],
      [
        "at",
        "tern"
      ],
      [
        "Ġ",
        "it"
      ],
      [
        "me",
        "nt"
      ],
      [
        "ous",
        "ly"
      ],
      [
        "Ġ",
        "4"
      ],
      [
        "Ġcon",
        "text"
      ],
      [
        "Ġf",
        "al"
      ],
      [
        "Ġworkf",
        "lows"
      ],
      [
        "Ġ",
        "or"
      ],
      [
        "Ġe",
        "vents"
      ],
      [
        "se",
        "t"
      ],
      [
        "Ġi",
        "dent"
      ],
      [
        "sele",
        "ctor"
      ],
      [
        "c",
        "l"
      ],
      [
        "Ġ",
        "R"
      ],
      [
        "tan",
        "d"
      ],
      [
        "a",
        "se"
      ],
      [
        "Ġ",
        "l"
      ],
      [
        "Ġfal",
        "se"
      ],
      [
        "Ġsa",
        "fe"
      ],
      [
        "v",
        "ision"
      ],
      [
        "ti",
        "c"
      ],
      [
        "Ġd",
        "omain"
      ],
      [
        "Ġcont",
        "inu"
      ],
      [
        "Ġà¤",
        "Ĩ"
      ],
      [
        "Ġa",
        "utonom"
      ],
      [
        "Ġse",
        "arch"
      ],
      [
        "à¤",
        "¬"
      ],
      [
        "tex",
        "tu"
      ],
      [
        "Ġcon",
        "textu"
      ],
      [
        "Ġob",
        "serve"
      ],
      [
        "ec",
        "k"
      ],
      [
        "Ġe",
        "x"
      ],
      [
        "ou",
        "ght"
      ],
      [
        "vi",
        "or"
      ],
      [
        "ha",
        "vior"
      ],
      [
        "Ġautonom",
        "ous"
      ],
      [
        "n",
        "e"
      ],
      [
        "u",
        "b"
      ],
      [
        "Ġ",
        "N"
      ],
      [
        "te",
        "ct"
      ],
      [
        "Ġg",
        "roun"
      ],
      [
        "e",
        "b"
      ],
      [
        "u",
        "nt"
      ],
      [
        "<|",
        "th"
      ],
      [
        "ĠA",
        "utonomy"
      ],
      [
        "Ġcontinu",
        "ously"
      ],
      [
        "ought",
        "|>"
      ],
      [
        "Ġgroun",
        "ded"
      ],
      [
        "<|th",
        "ought|>"
      ],
      [
        "p",
        "attern"
      ],
      [
        "Ġ",
        "tone"
      ],
      [
        "Ġà¤",
        "¬"
      ],
      [
        "Ġa",
        "ssistan"
      ],
      [
        "pro",
        "active"
      ],
      [
        "be",
        "havior"
      ],
      [
        "ĠLevel",
        "s"
      ],
      [
        "Ġcontextu",
        "ally"
      ],
      [
        "Ġassistan",
        "ce"
      ],
      [
        "j",
        "ect"
      ],
      [
        "d",
        "er"
      ],
      [
        "Ġcon",
        "f"
      ],
      [
        "te",
        "d"
      ],
      [
        "Ġa",
        "u"
      ],
      [
        "Ġ",
        "&"
      ],
      [
        "à¤¿",
        "à¤Ĥ"
      ],
      [
        "an",
        "s"
      ],
      [
        "Ġin",
        "to"
      ],
      [
        "Ġa",
        "s"
      ],
      [
        "Ġth",
        "at"
      ],
      [
        "Ġident",
        "ity"
      ],
      [
        "Ġsecu",
        "rity"
      ],
      [
        "d",
        "omain"
      ],
      [
        "b",
        "o"
      ],
      [
        "m",
        "ail"
      ],
      [
        "nt",
        "rol"
      ],
      [
        "o",
        "k"
      ],
      [
        "t",
        "s"
      ],
      [
        "t",
        "ing"
      ],
      [
        "time",
        "out"
      ],
      [
        "Ġ",
        "tr"
      ],
      [
        "re",
        "ad"
      ],
      [
        "à¤ķ",
        "à¤°"
      ],
      [
        "i",
        "te"
      ],
      [
        "n",
        "c"
      ],
      [
        "Ġ",
        "vi"
      ],
      [
        "ti",
        "f"
      ],
      [
        "tion",
        "s"
      ],
      [
        "e",
        "nt"
      ],
      [
        "Ġà¤",
        "ı"
      ],
      [
        "Ġà¤",
        "ĸ"
      ],
      [
        "Ġ",
        "li"
      ],
      [
        "à¤",
        "§"
      ],
      [
        "ce",
        "s"
      ],
      [
        "il",
        "l"
      ],
      [
        "d",
        "i"
      ],
      [
        "p",
        "o"
      ],
      [
        "Ġ",
        "M"
      ],
      [
        "Ġ",
        "`"
      ],
      [
        "co",
        "ntrol"
      ],
      [
        "Ġ",
        "un"
      ],
      [
        "a",
        "u"
      ],
      [
        "s",
        "k"
      ],
      [
        "de",
        "tect"
      ],
      [
        "lo",
        "cal"
      ],
      [
        "h",
        "o"
      ],
      [
        "ac",
        "t"
      ],
      [
        ")",
        "."
      ],
      [
        "Ġà¤",
        "°"
      ],
      [
        "i",
        "m"
      ],
      [
        "lis",
        "t"
      ],
      [
        "m",
        "b"
      ],
      [
        "Ġconf",
        "ir"
      ],
      [
        "s",
        "i"
      ],
      [
        "Ġe",
        "n"
      ],
      [
        "à¥ĭ",
        "à¤Ĥ"
      ],
      [
        "Ġb",
        "y"
      ],
      [
        "Ġv",
        "scode"
      ],
      [
        "^",
        "^"
      ],
      [
        "f",
        "f"
      ],
      [
        "Ġ",
        "j"
      ],
      [
        "à¤",
        "¼"
      ],
      [
        "ĠĠĠĠ",
        "ĠĠĠĠ"
      ],
      [
        "s",
        "ave"
      ],
      [
        "y",
        "s"
      ],
      [
        "Ġd",
        "is"
      ],
      [
        "iz",
        "e"
      ],
      [
        "Ġp",
        "re"
      ],
      [
        "Ġco",
        "de"
      ],
      [
        "ok",
        "ies"
      ],
      [
        "Ġ",
        "y"
      ],
      [
        "ith",
        "ub"
      ],
      [
        "bo",
        "ard"
      ],
      [
        "Ġ",
        "B"
      ],
      [
        "ĊĠĠĠĠ",
        "ĠĠĠ"
      ],
      [
        "ecu",
        "rity"
      ],
      [
        "Ġh",
        "ain"
      ],
      [
        "ap",
        "ture"
      ],
      [
        "Ġda",
        "ta"
      ],
      [
        "own",
        "load"
      ],
      [
        "à¤¾",
        "à¤Ĥ"
      ],
      [
        "ou",
        "se"
      ],
      [
        "Ġau",
        "to"
      ],
      [
        "co",
        "unt"
      ],
      [
        "cl",
        "ick"
      ],
      [
        "a",
        "pp"
      ],
      [
        "Ġp",
        "ar"
      ],
      [
        "cre",
        "ate"
      ],
      [
        "ĊĠĠĠĠ",
        "Ġ"
      ],
      [
        "our",
        "ce"
      ],
      [
        "à¤",
        "ĸ"
      ],
      [
        "f",
        "t"
      ],
      [
        "y",
        "e"
      ],
      [
        "se",
        "ssion"
      ],
      [
        "Ġme",
        "mory"
      ],
      [
        "e",
        "x"
      ],
      [
        "Ċ",
        "Ġ"
      ],
      [
        "ver",
        "s"
      ],
      [
        "te",
        "g"
      ],
      [
        "co",
        "okies"
      ],
      [
        "or",
        "d"
      ],
      [
        "à¤µ",
        "à¤°"
      ],
      [
        "m",
        "o"
      ],
      [
        "m",
        "ation"
      ],
      [
        "ve",
        "nt"
      ],
      [
        "Ġ",
        "}"
      ],
      [
        "Ġà¤Ĩ",
        "à¤ª"
      ],
      [
        "n",
        "ing"
      ],
      [
        "ty",
        "pe"
      ],
      [
        "i",
        "gh"
      ],
      [
        "à¥",
        "ī"
      ],
      [
        "Ġe",
        "mail"
      ],
      [
        "c",
        "lear"
      ],
      [
        "c",
        "apture"
      ],
      [
        "p",
        "tion"
      ],
      [
        "s",
        "ecurity"
      ],
      [
        "Ġ",
        "voice"
      ],
      [
        "à¤°",
        "à¤ķ"
      ],
      [
        "Ġà¤ķà¤°",
        "à¤¨"
      ],
      [
        "r",
        "ation"
      ],
      [
        "Ġà¤",
        "¤"
      ],
      [
        "ate",
        "d"
      ],
      [
        "ta",
        "sk"
      ],
      [
        "Ġb",
        "u"
      ],
      [
        "et",
        "ch"
      ],
      [
        "Ġvi",
        "a"
      ],
      [
        "a",
        "le"
      ],
      [
        "Ġ",
        "I"
      ],
      [
        "Ġ",
        "u"
      ],
      [
        "Ġ",
        "In"
      ],
      [
        "co",
        "m"
      ],
      [
        "Ġa",
        "pp"
      ],
      [
        "Ġco",
        "mp"
      ],
      [
        "l",
        "ine"
      ],
      [
        "p",
        "re"
      ],
      [
        "gu",
        "age"
      ],
      [
        "l",
        "ication"
      ],
      [
        "p",
        "ort"
      ],
      [
        "Ġs",
        "h"
      ],
      [
        "ĠO",
        "S"
      ],
      [
        "e",
        "xecute"
      ],
      [
        "Ġ",
        "te"
      ],
      [
        "un",
        "ch"
      ],
      [
        "Ġb",
        "ack"
      ],
      [
        "nd",
        "ar"
      ],
      [
        "qu",
        "es"
      ],
      [
        "Ġkar",
        "ke"
      ],
      [
        "Ġà¤Ĩà¤ª",
        "à¤ķ"
      ],
      [
        "y",
        "thon"
      ],
      [
        "Ġ",
        "-"
      ],
      [
        "Ġ",
        "W"
      ],
      [
        "lan",
        "guage"
      ],
      [
        "ro",
        "m"
      ],
      [
        "Ġk",
        "a"
      ],
      [
        "Ġb",
        "e"
      ],
      [
        "Ġ",
        "up"
      ],
      [
        "un",
        "d"
      ],
      [
        "teg",
        "ration"
      ],
      [
        "g",
        "er"
      ],
      [
        "i",
        "pe"
      ],
      [
        "Ġ",
        "K"
      ],
      [
        "co",
        "mm"
      ],
      [
        "ic",
        "al"
      ],
      [
        "Ġo",
        "pen"
      ],
      [
        "ur",
        "re"
      ],
      [
        "Ġlo",
        "g"
      ],
      [
        "u",
        "te"
      ],
      [
        "Ġ",
        "5"
      ],
      [
        "Ġà¤",
        "¡"
      ],
      [
        "ti",
        "cal"
      ],
      [
        "s",
        "ource"
      ],
      [
        "tr",
        "ic"
      ],
      [
        "à¤",
        "Ń"
      ],
      [
        "Ġp",
        "o"
      ],
      [
        "lo",
        "c"
      ],
      [
        "Ġlo",
        "cal"
      ],
      [
        "Ġch",
        "eck"
      ],
      [
        "Ġtr",
        "ans"
      ],
      [
        "d",
        "u"
      ],
      [
        "w",
        "ord"
      ],
      [
        "à¤",
        "ĩ"
      ],
      [
        "ac",
        "h"
      ],
      [
        "Ġà¤ħ",
        "à¤¨"
      ],
      [
        "Ġà¤ı",
        "à¤ķ"
      ],
      [
        "p",
        "h"
      ],
      [
        "t",
        "ar"
      ],
      [
        "ol",
        "der"
      ],
      [
        "Ġke",
        "y"
      ],
      [
        "tif",
        "ication"
      ],
      [
        "v",
        "al"
      ],
      [
        "Ġ",
        "ra"
      ],
      [
        "Ġp",
        "ri"
      ],
      [
        "Ġf",
        "rom"
      ],
      [
        "Ġw",
        "eb"
      ],
      [
        "nc",
        "y"
      ],
      [
        "re",
        "e"
      ],
      [
        "Ġg",
        "a"
      ],
      [
        "la",
        "y"
      ],
      [
        "Ġ4",
        "5"
      ],
      [
        "ale",
        "ndar"
      ],
      [
        "g",
        "ge"
      ],
      [
        "Ġo",
        "ver"
      ],
      [
        "et",
        "w"
      ],
      [
        "Ġà¤ī",
        "à¤¸"
      ],
      [
        "S",
        "e"
      ],
      [
        "a",
        "b"
      ],
      [
        "Ġ",
        "G"
      ],
      [
        "Ġs",
        "creen"
      ],
      [
        "ers",
        "tand"
      ],
      [
        "b",
        "ack"
      ],
      [
        "o",
        "t"
      ],
      [
        "Ġà¤",
        "ļ"
      ],
      [
        "nt",
        "h"
      ],
      [
        "al",
        "y"
      ],
      [
        "Ġm",
        "o"
      ],
      [
        "Ġga",
        "ya"
      ],
      [
        "e",
        "w"
      ],
      [
        "m",
        "ple"
      ],
      [
        "s",
        "c"
      ],
      [
        "z",
        "e"
      ],
      [
        "~",
        "~"
      ],
      [
        "Ġ",
        "U"
      ],
      [
        "Ġh",
        "igh"
      ],
      [
        "en",
        "d"
      ],
      [
        "Ġm",
        "an"
      ],
      [
        "Ġg",
        "ithub"
      ],
      [
        "i",
        "ve"
      ],
      [
        "Ġ",
        "="
      ],
      [
        "ate",
        "s"
      ],
      [
        "h",
        "i"
      ],
      [
        "i",
        "g"
      ],
      [
        "d",
        "ra"
      ],
      [
        "ack",
        "age"
      ],
      [
        "roun",
        "d"
      ],
      [
        "W",
        "eb"
      ],
      [
        "c",
        "tion"
      ],
      [
        "Ġa",
        "t"
      ],
      [
        "na",
        "ble"
      ],
      [
        "oc",
        "us"
      ],
      [
        "f",
        "er"
      ],
      [
        "Ġ",
        "time"
      ],
      [
        "ge",
        "nt"
      ],
      [
        "ac",
        "he"
      ],
      [
        "Ġd",
        "ire"
      ],
      [
        "tab",
        "ase"
      ],
      [
        "g",
        "round"
      ],
      [
        "o",
        "b"
      ],
      [
        "o",
        "pen"
      ],
      [
        "r",
        "un"
      ],
      [
        "s",
        "ol"
      ],
      [
        "al",
        "l"
      ],
      [
        "tr",
        "i"
      ],
      [
        "Ġà¤ķà¤°",
        "à¤¤"
      ],
      [
        "urre",
        "nt"
      ],
      [
        "Ġ",
        "z"
      ],
      [
        "Ġà¤",
        "Ń"
      ],
      [
        "ce",
        "nt"
      ],
      [
        "ow",
        "er"
      ],
      [
        "à¤Ł",
        "à¤®"
      ],
      [
        "ting",
        "s"
      ],
      [
        "aly",
        "ze"
      ],
      [
        "`",
        "`"
      ],
      [
        "b",
        "u"
      ],
      [
        "d",
        "s"
      ],
      [
        "m",
        "an"
      ],
      [
        "me",
        "d"
      ],
      [
        "Ġp",
        "a"
      ],
      [
        "Ġp",
        "ython"
      ],
      [
        "Ġin",
        "ter"
      ],
      [
        "Ġf",
        "etch"
      ],
      [
        "Ġpro",
        "cess"
      ],
      [
        "pro",
        "ject"
      ],
      [
        "vers",
        "ion"
      ],
      [
        "und",
        "erstand"
      ],
      [
        "m",
        "i"
      ],
      [
        "o",
        "th"
      ],
      [
        "p",
        "ri"
      ],
      [
        "à¤",
        "Ī"
      ],
      [
        "Ġs",
        "er"
      ],
      [
        "à¤¯",
        "à¤°"
      ],
      [
        "Ġ1",
        "2"
      ],
      [
        "Ġre",
        "quire"
      ],
      [
        "Ġd",
        "i"
      ],
      [
        "Ġm",
        "ulti"
      ],
      [
        "Ġm",
        "odified"
      ],
      [
        "Se",
        "arch"
      ],
      [
        "me",
        "mory"
      ],
      [
        "à¥ĩà¤Ĥ",
        ","
      ],
      [
        "Ġsu",
        "b"
      ],
      [
        "Ġsave",
        "d"
      ],
      [
        "ĠP",
        "ro"
      ],
      [
        "ite",
        "m"
      ],
      [
        "Ġj",
        "a"
      ],
      [
        "C",
        "ode"
      ],
      [
        "o",
        "g"
      ],
      [
        "o",
        "ft"
      ],
      [
        "v",
        "scode"
      ],
      [
        "Ġ",
        "def"
      ],
      [
        "is",
        "e"
      ],
      [
        "Ġh",
        "e"
      ],
      [
        "Ġwh",
        "ile"
      ],
      [
        "à¤ľ",
        "à¤ķà¤°"
      ],
      [
        "Ġ{",
        "}}"
      ],
      [
        "Ġl",
        "iya"
      ],
      [
        "Ġsearch",
        "ed"
      ],
      [
        "ne",
        "w"
      ],
      [
        "mb",
        "er"
      ],
      [
        "Ġconfir",
        "med"
      ],
      [
        "ipe",
        "line"
      ],
      [
        "gge",
        "st"
      ],
      [
        "d",
        "it"
      ],
      [
        "f",
        "a"
      ],
      [
        "m",
        "ic"
      ],
      [
        "Ġà¤",
        "¯"
      ],
      [
        "ou",
        "n"
      ],
      [
        "im",
        "age"
      ],
      [
        "tar",
        "get"
      ],
      [
        "Ġm",
        "a"
      ],
      [
        "ĊĠĠĠĠ",
        "ĠĠĠĠĠĠĠĠ"
      ],
      [
        "Ġcont",
        "rol"
      ],
      [
        "iz",
        "ed"
      ],
      [
        "^^",
        "^^"
      ],
      [
        "loc",
        "k"
      ],
      [
        "nable",
        "d"
      ],
      [
        "e",
        "nabled"
      ],
      [
        "m",
        "ouse"
      ],
      [
        "p",
        "ackage"
      ],
      [
        "in",
        "t"
      ],
      [
        "on",
        "e"
      ],
      [
        "ul",
        "l"
      ],
      [
        "en",
        "ce"
      ],
      [
        "ĠT",
        "he"
      ],
      [
        "Ġconfir",
        "mation"
      ],
      [
        "ques",
        "t"
      ],
      [
        "Ġpri",
        "v"
      ],
      [
        "a",
        "ble"
      ],
      [
        "d",
        "ownload"
      ],
      [
        "à¥",
        "Į"
      ],
      [
        "re",
        "po"
      ],
      [
        "it",
        "ch"
      ],
      [
        "Ġse",
        "t"
      ],
      [
        "à¤Ĩ",
        "à¤ª"
      ],
      [
        "tand",
        "ard"
      ],
      [
        "Ġy",
        "our"
      ],
      [
        "oft",
        "ware"
      ],
      [
        "\"",
        "]"
      ],
      [
        "P",
        "U"
      ],
      [
        "g",
        "ra"
      ],
      [
        "m",
        "in"
      ],
      [
        "Ġre",
        "ad"
      ],
      [
        "Ġe",
        "xecu"
      ],
      [
        "Ġm",
        "od"
      ],
      [
        "à¤ķà¤°",
        "à¤£"
      ],
      [
        "b",
        "y"
      ],
      [
        "d",
        "ate"
      ],
      [
        "s",
        "truc"
      ],
      [
        "Ġà¤",
        "¶"
      ],
      [
        "ti",
        "m"
      ],
      [
        "ro",
        "n"
      ],
      [
        "Ġfile",
        "s"
      ],
      [
        "e",
        "f"
      ],
      [
        "s",
        "cri"
      ],
      [
        "s",
        "ho"
      ],
      [
        "Ġ",
        "tab"
      ],
      [
        "in",
        "ter"
      ],
      [
        "er",
        "o"
      ],
      [
        "ol",
        "u"
      ],
      [
        "or",
        "ity"
      ],
      [
        "ac",
        "y"
      ],
      [
        "st",
        "s"
      ],
      [
        "la",
        "unch"
      ],
      [
        "Ġda",
        "tabase"
      ],
      [
        "Ġpar",
        "ser"
      ],
      [
        "etw",
        "ork"
      ],
      [
        "mi",
        "ssion"
      ],
      [
        "g",
        "or"
      ],
      [
        "i",
        "ss"
      ],
      [
        "p",
        "lay"
      ],
      [
        "s",
        "tr"
      ],
      [
        "à¤",
        "«"
      ],
      [
        "Ġc",
        "alendar"
      ],
      [
        "Ġn",
        "o"
      ],
      [
        "Ġm",
        "ouse"
      ],
      [
        "Ġal",
        "l"
      ],
      [
        "ĠR",
        "e"
      ],
      [
        "ite",
        "c"
      ],
      [
        "e",
        "e"
      ],
      [
        "g",
        "ate"
      ],
      [
        "i",
        "x"
      ],
      [
        "l",
        "ic"
      ],
      [
        "Ġ",
        "arch"
      ],
      [
        "me",
        "di"
      ],
      [
        "à¥Īà¤Ĥ",
        "à¥¤"
      ],
      [
        "st",
        "all"
      ],
      [
        "la",
        "ss"
      ],
      [
        "ne",
        "l"
      ],
      [
        "ject",
        "s"
      ],
      [
        "Ġu",
        "se"
      ],
      [
        "T",
        "T"
      ],
      [
        "W",
        "S"
      ],
      [
        "b",
        "l"
      ],
      [
        "n",
        "er"
      ],
      [
        "Ġ",
        "J"
      ],
      [
        "Ġ",
        "t"
      ],
      [
        "te",
        "s"
      ],
      [
        "se",
        "nt"
      ],
      [
        "ĠA",
        "WS"
      ],
      [
        "Ġcon",
        "c"
      ],
      [
        "Ġex",
        "p"
      ],
      [
        "Ġauto",
        "m"
      ],
      [
        "Ġman",
        "age"
      ],
      [
        "oun",
        "ded"
      ],
      [
        "m",
        "it"
      ],
      [
        "t",
        "le"
      ],
      [
        "w",
        "ard"
      ],
      [
        "Ġ",
        "le"
      ],
      [
        "in",
        "es"
      ],
      [
        "in",
        "tegration"
      ],
      [
        "re",
        "ss"
      ],
      [
        "tu",
        "r"
      ],
      [
        "Ġd",
        "o"
      ],
      [
        "st",
        "ate"
      ],
      [
        "us",
        "h"
      ],
      [
        "oc",
        "u"
      ],
      [
        "Ġapp",
        "lication"
      ],
      [
        "tric",
        "t"
      ],
      [
        "sol",
        "e"
      ],
      [
        "pri",
        "ority"
      ],
      [
        "Ġpriv",
        "acy"
      ],
      [
        "d",
        "nd"
      ],
      [
        "u",
        "m"
      ],
      [
        "er",
        "e"
      ],
      [
        "an",
        "ge"
      ],
      [
        "ar",
        "ing"
      ],
      [
        "ol",
        "ic"
      ],
      [
        "Ġs",
        "tandard"
      ],
      [
        "Ġa",
        "gent"
      ],
      [
        "Ġco",
        "mple"
      ],
      [
        "Ġk",
        "ya"
      ],
      [
        "Ġh",
        "as"
      ],
      [
        "Ġà¤¸",
        "à¤®"
      ],
      [
        "Ġb",
        "in"
      ],
      [
        "ha",
        "re"
      ],
      [
        "Ġz",
        "ero"
      ],
      [
        "gor",
        "ith"
      ],
      [
        "medi",
        "ate"
      ],
      [
        "integration",
        "s"
      ],
      [
        "D",
        "F"
      ],
      [
        "l",
        "l"
      ],
      [
        "r",
        "y"
      ],
      [
        "Ġk",
        "o"
      ],
      [
        "ff",
        "ers"
      ],
      [
        "Ġy",
        "ou"
      ],
      [
        "p",
        "ipeline"
      ],
      [
        "co",
        "r"
      ],
      [
        "ic",
        "h"
      ],
      [
        "Ġf",
        "ull"
      ],
      [
        "à¤ª",
        "à¤¨"
      ],
      [
        "ty",
        "p"
      ],
      [
        "Ġi",
        "m"
      ],
      [
        "il",
        "ity"
      ],
      [
        "Ġal",
        "gorith"
      ],
      [
        "a",
        "g"
      ],
      [
        "i",
        "me"
      ],
      [
        "s",
        "y"
      ],
      [
        "re",
        "s"
      ],
      [
        "ti",
        "v"
      ],
      [
        "le",
        "s"
      ],
      [
        "qu",
        "e"
      ],
      [
        "à¥Ī",
        ","
      ],
      [
        "Ġc",
        "urrent"
      ],
      [
        "lo",
        "se"
      ],
      [
        "key",
        "board"
      ],
      [
        "Ġli",
        "ye"
      ],
      [
        "mo",
        "ve"
      ],
      [
        "Ġarch",
        "itec"
      ],
      [
        "TT",
        "P"
      ],
      [
        "f",
        "older"
      ],
      [
        "f",
        "ocus"
      ],
      [
        "i",
        "ti"
      ],
      [
        "m",
        "s"
      ],
      [
        "Ġ",
        "version"
      ],
      [
        "an",
        "alyze"
      ],
      [
        "su",
        "ggest"
      ],
      [
        "wa",
        "ke"
      ],
      [
        "no",
        "tification"
      ],
      [
        "screen",
        "sho"
      ],
      [
        "tif",
        "y"
      ],
      [
        "ill",
        "ing"
      ],
      [
        "com",
        "ing"
      ],
      [
        "comm",
        "and"
      ],
      [
        "mission",
        "s"
      ],
      [
        "olic",
        "y"
      ],
      [
        "e",
        "mail"
      ],
      [
        "g",
        "ithub"
      ],
      [
        "if",
        "i"
      ],
      [
        "ste",
        "d"
      ],
      [
        "à¤®",
        "à¤¤"
      ],
      [
        "à¤ľ",
        "à¤¨"
      ],
      [
        "ĊĠĠĠĠ",
        "ĠĠĠĠ"
      ],
      [
        "iz",
        "ation"
      ],
      [
        "à¤ı",
        "à¤¸"
      ],
      [
        "cl",
        "u"
      ],
      [
        "'",
        "s"
      ],
      [
        "à¤",
        "ī"
      ],
      [
        "Ġà¤",
        "ĵ"
      ],
      [
        "Ġs",
        "y"
      ],
      [
        "tr",
        "ans"
      ],
      [
        "Ġn",
        "etwork"
      ],
      [
        "Ġm",
        "ode"
      ],
      [
        "Ġen",
        "su"
      ],
      [
        "nth",
        "es"
      ],
      [
        "fa",
        "ces"
      ],
      [
        "tiv",
        "ity"
      ],
      [
        "A",
        "ap"
      ],
      [
        "a",
        "k"
      ],
      [
        "b",
        "ase"
      ],
      [
        "h",
        "en"
      ],
      [
        "i",
        "al"
      ],
      [
        "p",
        "tim"
      ],
      [
        "Ġ",
        "ro"
      ],
      [
        "ti",
        "es"
      ],
      [
        "à¤°",
        "à¤¤"
      ],
      [
        "na",
        "vi"
      ],
      [
        "à¥Ĥ",
        "à¤ģ"
      ],
      [
        "ĠH",
        "TTP"
      ],
      [
        "li",
        "p"
      ],
      [
        "Ġsa",
        "k"
      ],
      [
        "Ġsh",
        "aring"
      ],
      [
        "val",
        "ue"
      ],
      [
        "Ġdire",
        "ct"
      ],
      [
        "j",
        "s"
      ],
      [
        "v",
        "olu"
      ],
      [
        "er",
        "nel"
      ],
      [
        "Ġs",
        "torage"
      ],
      [
        "ing",
        "le"
      ],
      [
        "Ġp",
        "er"
      ],
      [
        "tr",
        "act"
      ],
      [
        "ri",
        "ght"
      ],
      [
        "Ġc",
        "an"
      ],
      [
        "Ġm",
        "y"
      ],
      [
        "ur",
        "ing"
      ],
      [
        "ĠC",
        "on"
      ],
      [
        "ĠC",
        "PU"
      ],
      [
        "pro",
        "cess"
      ],
      [
        "Ġho",
        "ta"
      ],
      [
        "Ġoperation",
        "s"
      ],
      [
        "Ġback",
        "ground"
      ],
      [
        "comm",
        "it"
      ],
      [
        "f",
        "act"
      ],
      [
        "ro",
        "p"
      ],
      [
        "Ġp",
        "age"
      ],
      [
        "Ġin",
        "de"
      ],
      [
        "Ġe",
        "ng"
      ],
      [
        "at",
        "ch"
      ],
      [
        "vi",
        "ce"
      ],
      [
        "Ġd",
        "own"
      ],
      [
        "Ġc",
        "a"
      ],
      [
        "file",
        "system"
      ],
      [
        "Ġm",
        "in"
      ],
      [
        "Ġwh",
        "ich"
      ],
      [
        "rol",
        "l"
      ],
      [
        "Ġ}",
        ","
      ],
      [
        "ocu",
        "ments"
      ],
      [
        "navi",
        "gate"
      ],
      [
        "S",
        "T"
      ],
      [
        "b",
        "al"
      ],
      [
        "i",
        "p"
      ],
      [
        "l",
        "f"
      ],
      [
        "o",
        "re"
      ],
      [
        "p",
        "ower"
      ],
      [
        "s",
        "ize"
      ],
      [
        "à¥ĩ",
        ","
      ],
      [
        "Ġk",
        "ernel"
      ],
      [
        "Ġth",
        "an"
      ],
      [
        "ch",
        "eck"
      ],
      [
        "con",
        "ds"
      ],
      [
        "sele",
        "ct"
      ],
      [
        "ill",
        "s"
      ],
      [
        "T",
        "he"
      ],
      [
        "d",
        "f"
      ],
      [
        "d",
        "is"
      ],
      [
        "d",
        "oc"
      ],
      [
        "e",
        "vent"
      ],
      [
        "m",
        "ode"
      ],
      [
        "p",
        "ar"
      ],
      [
        "s",
        "tand"
      ],
      [
        "ol",
        "d"
      ],
      [
        "ti",
        "tle"
      ],
      [
        "ss",
        "age"
      ],
      [
        "me",
        "mber"
      ],
      [
        "ac",
        "tivity"
      ],
      [
        "ri",
        "ef"
      ],
      [
        "Ġd",
        "ownload"
      ],
      [
        "Ġrun",
        "ning"
      ],
      [
        "dra",
        "ft"
      ],
      [
        "Ġrequire",
        "d"
      ],
      [
        "nthes",
        "ize"
      ],
      [
        "A",
        "utonomy"
      ],
      [
        "b",
        "ounded"
      ],
      [
        "d",
        "a"
      ],
      [
        "f",
        "ill"
      ],
      [
        "g",
        "an"
      ],
      [
        "m",
        "inal"
      ],
      [
        "n",
        "ec"
      ],
      [
        "à¥",
        "ĥ"
      ],
      [
        "te",
        "rs"
      ],
      [
        "re",
        "port"
      ],
      [
        "to",
        "oth"
      ],
      [
        "à¤°",
        "à¤£"
      ],
      [
        "Ġin",
        "tegration"
      ],
      [
        "Ġà¤¸",
        "à¤ķ"
      ],
      [
        "Ġc",
        "lass"
      ],
      [
        "Ġo",
        "ptim"
      ],
      [
        "cri",
        "be"
      ],
      [
        "Ġm",
        "ain"
      ],
      [
        "à¥Īà¤Ĥ",
        "?"
      ],
      [
        "wa",
        "y"
      ],
      [
        "wa",
        "it"
      ],
      [
        "li",
        "ent"
      ],
      [
        "Ġde",
        "le"
      ],
      [
        "ue",
        "tooth"
      ],
      [
        "Ġà¤°",
        "à¤¹"
      ],
      [
        "ex",
        "port"
      ],
      [
        "pre",
        "ss"
      ],
      [
        "ĠPro",
        "vide"
      ],
      [
        "scri",
        "ption"
      ],
      [
        "clu",
        "de"
      ],
      [
        "lip",
        "board"
      ],
      [
        "doc",
        "x"
      ],
      [
        "stand",
        "by"
      ],
      [
        "i",
        "ght"
      ],
      [
        "p",
        "s"
      ],
      [
        "u",
        "gh"
      ],
      [
        "Ġs",
        "ch"
      ],
      [
        "ro",
        "ugh"
      ],
      [
        "Ġp",
        "e"
      ],
      [
        "ta",
        "in"
      ],
      [
        "Ġkar",
        "te"
      ],
      [
        "Ġkar",
        "ta"
      ],
      [
        "ation",
        "s"
      ],
      [
        "Ġwith",
        "in"
      ],
      [
        "Ġwith",
        "out"
      ],
      [
        "Ġc",
        "ache"
      ],
      [
        "Ġn",
        "ode"
      ],
      [
        "lo",
        "g"
      ],
      [
        "ad",
        "d"
      ],
      [
        "Ġac",
        "tions"
      ],
      [
        "ĠC",
        "o"
      ],
      [
        "us",
        "ing"
      ],
      [
        "cor",
        "d"
      ],
      [
        ")",
        ";"
      ],
      [
        "0",
        "2"
      ],
      [
        "g",
        "n"
      ],
      [
        "re",
        "am"
      ],
      [
        "Ġs",
        "hare"
      ],
      [
        "ss",
        "word"
      ],
      [
        "su",
        "ch"
      ],
      [
        "Ġa",
        "g"
      ],
      [
        "tu",
        "al"
      ],
      [
        "Ġre",
        "g"
      ],
      [
        "Ġw",
        "indow"
      ],
      [
        "ta",
        "tion"
      ],
      [
        "ke",
        "t"
      ],
      [
        "Ġqu",
        "e"
      ],
      [
        "au",
        "se"
      ],
      [
        "Ġup",
        "date"
      ],
      [
        "ew",
        "s"
      ],
      [
        "Ġà¤ĵ",
        "à¤ıà¤¸"
      ],
      [
        "Ġensu",
        "re"
      ],
      [
        "Ġsak",
        "ti"
      ],
      [
        "volu",
        "me"
      ],
      [
        "a",
        "me"
      ],
      [
        "i",
        "li"
      ],
      [
        "n",
        "ess"
      ],
      [
        "p",
        "ush"
      ],
      [
        "u",
        "i"
      ],
      [
        "v",
        "ing"
      ],
      [
        "Ġ",
        "ge"
      ],
      [
        "Ġ",
        "typ"
      ],
      [
        "Ġs",
        "ingle"
      ],
      [
        "th",
        "e"
      ],
      [
        "Ġco",
        "l"
      ],
      [
        "ou",
        "nd"
      ],
      [
        "Ġf",
        "un"
      ],
      [
        "Ġw",
        "rite"
      ],
      [
        "se",
        "nd"
      ],
      [
        "ile",
        "nt"
      ],
      [
        "Ġd",
        "an"
      ],
      [
        "erro",
        "r"
      ],
      [
        "for",
        "ward"
      ],
      [
        "set",
        "tings"
      ],
      [
        "app",
        "lication"
      ],
      [
        "sc",
        "an"
      ],
      [
        "ob",
        "jects"
      ],
      [
        "tri",
        "bu"
      ],
      [
        "Ġarchitec",
        "ture"
      ],
      [
        "0",
        "8"
      ],
      [
        "c",
        "i"
      ],
      [
        "c",
        "lose"
      ],
      [
        "c",
        "lipboard"
      ],
      [
        "d",
        "rop"
      ],
      [
        "e",
        "vents"
      ],
      [
        "o",
        "ption"
      ],
      [
        "p",
        "olicy"
      ],
      [
        "p",
        "df"
      ],
      [
        "s",
        "oftware"
      ],
      [
        "u",
        "th"
      ],
      [
        "w",
        "ifi"
      ],
      [
        "x",
        "ed"
      ],
      [
        "Ġ",
        "task"
      ],
      [
        "in",
        "stall"
      ],
      [
        "Ġà¤",
        "«"
      ],
      [
        "re",
        "load"
      ],
      [
        "re",
        "cent"
      ],
      [
        "re",
        "cord"
      ],
      [
        "co",
        "sts"
      ],
      [
        "Ġs",
        "p"
      ],
      [
        "Ġs",
        "trict"
      ],
      [
        "le",
        "d"
      ],
      [
        "th",
        "er"
      ],
      [
        "or",
        "ning"
      ],
      [
        "Ġe",
        "vent"
      ],
      [
        "ac",
        "count"
      ],
      [
        "ic",
        "ro"
      ],
      [
        "se",
        "conds"
      ],
      [
        "un",
        "read"
      ],
      [
        "ed",
        "it"
      ],
      [
        "per",
        "missions"
      ],
      [
        "lo",
        "bal"
      ],
      [
        "à¤¸",
        "à¤®"
      ],
      [
        "ur",
        "l"
      ],
      [
        "sw",
        "itch"
      ],
      [
        "tab",
        "s"
      ],
      [
        "up",
        "load"
      ],
      [
        "up",
        "coming"
      ],
      [
        "Ġho",
        "on"
      ],
      [
        "oc",
        "r"
      ],
      [
        "po",
        "tify"
      ],
      [
        "ĠM",
        "e"
      ],
      [
        "au",
        "dit"
      ],
      [
        "sk",
        "ills"
      ],
      [
        "ho",
        "ver"
      ],
      [
        "ex",
        "tract"
      ],
      [
        "unch",
        "eck"
      ],
      [
        "Ġ45",
        "0"
      ],
      [
        "sc",
        "roll"
      ],
      [
        "~~",
        "~~"
      ],
      [
        "dra",
        "g"
      ],
      [
        "``",
        "`"
      ],
      [
        "repo",
        "s"
      ],
      [
        "Ġset",
        "tings"
      ],
      [
        "iss",
        "ue"
      ],
      [
        "bl",
        "uetooth"
      ],
      [
        "Ġautom",
        "ated"
      ],
      [
        "sy",
        "nthesize"
      ],
      [
        "screensho",
        "t"
      ],
      [
        "trans",
        "cribe"
      ],
      [
        "dis",
        "play"
      ],
      [
        "Ġdan",
        "ger"
      ],
      [
        "e",
        "l"
      ],
      [
        "Ġ",
        "ar"
      ],
      [
        "Ġ",
        "if"
      ],
      [
        "te",
        "n"
      ],
      [
        "er",
        "n"
      ],
      [
        "or",
        "m"
      ],
      [
        "à¤Ł",
        "à¤°"
      ],
      [
        "Ġd",
        "uring"
      ],
      [
        "con",
        "f"
      ],
      [
        "Ġerro",
        "r"
      ],
      [
        "id",
        "le"
      ],
      [
        "tern",
        "al"
      ],
      [
        "Ġas",
        "y"
      ],
      [
        "si",
        "gn"
      ],
      [
        "Ġpre",
        "sent"
      ],
      [
        "Ġim",
        "mediate"
      ],
      [
        "Ġdanger",
        "ous"
      ],
      [
        "i",
        "de"
      ],
      [
        "i",
        "rs"
      ],
      [
        "o",
        "p"
      ],
      [
        "â",
        "Ģ"
      ],
      [
        "Ġ",
        "<"
      ],
      [
        "à¤¯",
        "à¤ķ"
      ],
      [
        "Ġc",
        "re"
      ],
      [
        "ĠS",
        "u"
      ],
      [
        "il",
        "d"
      ],
      [
        "Ġli",
        "ke"
      ],
      [
        "Ġdis",
        "tribu"
      ],
      [
        "Ġcomp",
        "u"
      ],
      [
        "tical",
        "ly"
      ],
      [
        "\"]",
        "}}"
      ],
      [
        "Ġapplication",
        "s"
      ],
      [
        "ĊĠĠĠĠĠĠĠĠ",
        "ĠĠĠ"
      ],
      [
        "irs",
        "t"
      ],
      [
        "âĢ",
        "Ķ"
      ],
      [
        "W",
        "h"
      ],
      [
        "a",
        "tive"
      ],
      [
        "e",
        "y"
      ],
      [
        "i",
        "gu"
      ],
      [
        "s",
        "is"
      ],
      [
        "t",
        "t"
      ],
      [
        "re",
        "d"
      ],
      [
        "Ġs",
        "tr"
      ],
      [
        "ate",
        "ncy"
      ],
      [
        "Ġk",
        "i"
      ],
      [
        "Ġf",
        "ail"
      ],
      [
        "qu",
        "i"
      ],
      [
        "ul",
        "ar"
      ],
      [
        "Ġth",
        "rough"
      ],
      [
        "Ġthe",
        "ir"
      ],
      [
        "Ġc",
        "lient"
      ],
      [
        "Ġm",
        "u"
      ],
      [
        "Ġqu",
        "ery"
      ],
      [
        "Ġv",
        "ec"
      ],
      [
        "for",
        "ce"
      ],
      [
        "ĠC",
        "ode"
      ],
      [
        "Ġde",
        "sign"
      ],
      [
        "unt",
        "ime"
      ],
      [
        "ĠW",
        "hen"
      ],
      [
        "Ġno",
        "tification"
      ],
      [
        "lic",
        "it"
      ],
      [
        "Ġalgorith",
        "m"
      ],
      [
        "Ġimmediate",
        "ly"
      ],
      [
        "S",
        "ystem"
      ],
      [
        "e",
        "m"
      ],
      [
        "f",
        "etch"
      ],
      [
        "t",
        "ter"
      ],
      [
        "Ġs",
        "c"
      ],
      [
        "le",
        "tter"
      ],
      [
        "is",
        "k"
      ],
      [
        "Ġin",
        "iti"
      ],
      [
        "tr",
        "y"
      ],
      [
        "à¤¤",
        "à¤°"
      ],
      [
        "ni",
        "ght"
      ],
      [
        "ĠS",
        "potify"
      ],
      [
        "Ġm",
        "ute"
      ],
      [
        "Ġb",
        "lock"
      ],
      [
        "Ġcon",
        "nec"
      ],
      [
        "Ġwh",
        "ere"
      ],
      [
        "Ġcont",
        "ain"
      ],
      [
        "ĠN",
        "ews"
      ],
      [
        "save",
        "d"
      ],
      [
        "Ġkey",
        "board"
      ],
      [
        "Ġpresent",
        "ation"
      ],
      [
        "ĠNews",
        "letter"
      ],
      [
        "-",
        "-"
      ],
      [
        "S",
        "S"
      ],
      [
        "a",
        "ding"
      ],
      [
        "c",
        "u"
      ],
      [
        "o",
        "s"
      ],
      [
        "p",
        "to"
      ],
      [
        "r",
        "an"
      ],
      [
        "Ġ",
        "using"
      ],
      [
        "Ġp",
        "h"
      ],
      [
        "de",
        "scription"
      ],
      [
        "Ġre",
        "quest"
      ],
      [
        "Ġf",
        "ra"
      ],
      [
        "Ġc",
        "l"
      ],
      [
        "Ġv",
        "al"
      ],
      [
        "us",
        "tr"
      ],
      [
        "Ġne",
        "w"
      ],
      [
        "Ġà¤µ",
        "à¤°"
      ],
      [
        "Ġit",
        "s"
      ],
      [
        "Ġpa",
        "th"
      ],
      [
        "Ġprocess",
        "ing"
      ],
      [
        "Ġser",
        "ver"
      ],
      [
        "^^^^",
        "^^^^"
      ],
      [
        "Ġexecu",
        "tion"
      ],
      [
        "ee",
        "p"
      ],
      [
        "Ġexp",
        "licit"
      ],
      [
        "3",
        "0"
      ],
      [
        "Q",
        "L"
      ],
      [
        "R",
        "e"
      ],
      [
        "`",
        ","
      ],
      [
        "k",
        "s"
      ],
      [
        "k",
        "en"
      ],
      [
        "r",
        "up"
      ],
      [
        "er",
        "ge"
      ],
      [
        "Ġs",
        "w"
      ],
      [
        "Ġs",
        "ta"
      ],
      [
        "Ġs",
        "oc"
      ],
      [
        "ve",
        "n"
      ],
      [
        "Ġp",
        "ers"
      ],
      [
        "Ġre",
        "su"
      ],
      [
        "Ġe",
        "nt"
      ],
      [
        "Ġe",
        "very"
      ],
      [
        "à¥Ģ",
        ","
      ],
      [
        "Ġse",
        "qu"
      ],
      [
        "Ġg",
        "ra"
      ],
      [
        "as",
        "h"
      ],
      [
        "Ġsystem",
        "s"
      ],
      [
        "Ġho",
        "ti"
      ],
      [
        "Ġà¤Ĺ",
        "à¤¯"
      ],
      [
        "mo",
        "tion"
      ],
      [
        "Ġapp",
        "ro"
      ],
      [
        "Ġà¤ļ",
        "à¤²"
      ],
      [
        "ig",
        "n"
      ],
      [
        "Ġhe",
        "ad"
      ],
      [
        "Ġbin",
        "a"
      ],
      [
        "/",
        "/"
      ],
      [
        "4",
        "2"
      ],
      [
        "C",
        "P"
      ],
      [
        "D",
        "e"
      ],
      [
        "a",
        "tor"
      ],
      [
        "k",
        "ly"
      ],
      [
        "s",
        "tic"
      ],
      [
        "Ġ",
        "gu"
      ],
      [
        "Ġ",
        "out"
      ],
      [
        "Ġ",
        "list"
      ],
      [
        "in",
        "put"
      ],
      [
        "ar",
        "i"
      ],
      [
        "al",
        "th"
      ],
      [
        "Ġp",
        "ower"
      ],
      [
        "Ġin",
        "clude"
      ],
      [
        "Ġre",
        "quires"
      ],
      [
        "Ġe",
        "le"
      ],
      [
        "Ġkar",
        "ne"
      ],
      [
        "Ġth",
        "read"
      ],
      [
        "ation",
        "al"
      ],
      [
        "Ġsu",
        "mmary"
      ],
      [
        "Ġn",
        "on"
      ],
      [
        "Ġb",
        "rief"
      ],
      [
        "ĠC",
        "om"
      ],
      [
        "à¤Ĩ",
        "à¤Ī"
      ],
      [
        "Ġde",
        "pen"
      ],
      [
        "la",
        "xed"
      ],
      [
        "up",
        "s"
      ],
      [
        "Ġà¤ĩ",
        "à¤¸"
      ],
      [
        "Ġho",
        "te"
      ],
      [
        "Ġà¤¸à¤",
        "¬"
      ],
      [
        "Ġor",
        "der"
      ],
      [
        "ff",
        "ic"
      ],
      [
        "Ġtrans",
        "action"
      ],
      [
        "man",
        "tic"
      ],
      [
        "gra",
        "ph"
      ],
      [
        "DF",
        "s"
      ],
      [
        "Ġmain",
        "tain"
      ],
      [
        "Ġque",
        "ue"
      ],
      [
        "Ġge",
        "ner"
      ],
      [
        "uth",
        "or"
      ],
      [
        "conf",
        "ir"
      ],
      [
        "rup",
        "tion"
      ],
      [
        "!",
        "'"
      ],
      [
        "P",
        "I"
      ],
      [
        "P",
        "DFs"
      ],
      [
        "W",
        "ee"
      ],
      [
        "a",
        "x"
      ],
      [
        "c",
        "alendar"
      ],
      [
        "d",
        "an"
      ],
      [
        "e",
        "motion"
      ],
      [
        "f",
        "ore"
      ],
      [
        "h",
        "ro"
      ],
      [
        "h",
        "tt"
      ],
      [
        "n",
        "ch"
      ],
      [
        "r",
        "ustr"
      ],
      [
        "t",
        "al"
      ],
      [
        "Ġ",
        "+"
      ],
      [
        "Ġ",
        "8"
      ],
      [
        "Ġ",
        "na"
      ],
      [
        "in",
        "activity"
      ],
      [
        "ar",
        "ge"
      ],
      [
        "me",
        "s"
      ],
      [
        "Ġre",
        "member"
      ],
      [
        "ri",
        "tical"
      ],
      [
        "ri",
        "end"
      ],
      [
        "à¤¤",
        "à¤®"
      ],
      [
        "Ġm",
        "icro"
      ],
      [
        "Ġcon",
        "sole"
      ],
      [
        "Ġ3",
        "0"
      ],
      [
        "pa",
        "ssword"
      ],
      [
        "id",
        "th"
      ],
      [
        "ter",
        "minal"
      ],
      [
        "Ġi",
        "mple"
      ],
      [
        "Ġde",
        "tect"
      ],
      [
        "Ġà¤¸à¤",
        "¹"
      ],
      [
        "Ġsa",
        "ys"
      ],
      [
        "ĠD",
        "ocuments"
      ],
      [
        "Ġon",
        "e"
      ],
      [
        "aware",
        "ness"
      ],
      [
        "Ġl",
        "atency"
      ],
      [
        "ff",
        "er"
      ],
      [
        "Ġbe",
        "fore"
      ],
      [
        "ĠK",
        "eep"
      ],
      [
        "Ġover",
        "night"
      ],
      [
        "bu",
        "ffers"
      ],
      [
        "Ġmulti",
        "ple"
      ],
      [
        "\"]",
        ","
      ],
      [
        "inter",
        "ruption"
      ],
      [
        "Ġconc",
        "ise"
      ],
      [
        "ag",
        "no"
      ],
      [
        "Ġmode",
        "l"
      ],
      [
        "Ġinde",
        "x"
      ],
      [
        "Ġeng",
        "ine"
      ],
      [
        "Ġdown",
        "lo"
      ],
      [
        "02",
        "6"
      ],
      [
        "ili",
        "ties"
      ],
      [
        "Ġdistribu",
        "ted"
      ],
      [
        "qui",
        "et"
      ],
      [
        "Ġph",
        "ys"
      ],
      [
        "Ġsw",
        "itch"
      ],
      [
        "confir",
        "mation"
      ],
      [
        "Wee",
        "kly"
      ],
      [
        "dan",
        "tic"
      ],
      [
        "hro",
        "me"
      ],
      [
        "riend",
        "ly"
      ],
      [
        "5",
        "0"
      ],
      [
        "P",
        "ro"
      ],
      [
        "b",
        "ility"
      ],
      [
        "i",
        "ent"
      ],
      [
        "p",
        "id"
      ],
      [
        "Ġ",
        "ta"
      ],
      [
        "Ġ",
        "low"
      ],
      [
        "nt",
        "ax"
      ],
      [
        "Ġa",
        "m"
      ],
      [
        "Ġf",
        "ix"
      ],
      [
        "Ġpro",
        "du"
      ],
      [
        "Ġh",
        "ard"
      ],
      [
        "vi",
        "ron"
      ],
      [
        "à¤µ",
        "à¤¨"
      ],
      [
        "ter",
        "min"
      ],
      [
        "Ġal",
        "lows"
      ],
      [
        "Ġtr",
        "a"
      ],
      [
        "Ġen",
        "viron"
      ],
      [
        "Ġra",
        "he"
      ],
      [
        "Ġmo",
        "nth"
      ],
      [
        "Ġmanage",
        "ment"
      ],
      [
        "ry",
        "pto"
      ],
      [
        "Ġsch",
        "ed"
      ],
      [
        "Ġag",
        "ain"
      ],
      [
        "Ġtask",
        "s"
      ],
      [
        "cu",
        "rs"
      ],
      [
        "Ġà¤¸à¤¬",
        "à¤¸"
      ],
      [
        "6",
        "4"
      ],
      [
        "a",
        "st"
      ],
      [
        "a",
        "ger"
      ],
      [
        "c",
        "ing"
      ],
      [
        "e",
        "en"
      ],
      [
        "h",
        "an"
      ],
      [
        "m",
        "pt"
      ],
      [
        "r",
        "in"
      ],
      [
        "w",
        "o"
      ],
      [
        "Ġ",
        "|"
      ],
      [
        "Ġ",
        "cal"
      ],
      [
        "Ġ",
        "language"
      ],
      [
        "er",
        "i"
      ],
      [
        "an",
        "te"
      ],
      [
        "ar",
        "ante"
      ],
      [
        "on",
        "al"
      ],
      [
        "ve",
        "s"
      ],
      [
        "à¤°",
        "à¤®"
      ],
      [
        "me",
        "try"
      ],
      [
        "ge",
        "s"
      ],
      [
        "Ġe",
        "ach"
      ],
      [
        "ri",
        "es"
      ],
      [
        "à¤¯",
        "à¤¤"
      ],
      [
        "Ġd",
        "ec"
      ],
      [
        "Ġb",
        "etw"
      ],
      [
        "ĠEng",
        "ine"
      ],
      [
        "Ġr",
        "untime"
      ],
      [
        "od",
        "y"
      ],
      [
        "Ġst",
        "ream"
      ],
      [
        "ĠD",
        "e"
      ],
      [
        "Ġau",
        "th"
      ],
      [
        "ĠM",
        "ode"
      ],
      [
        "Ġfun",
        "ction"
      ],
      [
        "Ġgu",
        "arante"
      ],
      [
        "agno",
        "stic"
      ],
      [
        "Ġbetw",
        "een"
      ],
      [
        ":",
        "//"
      ],
      [
        "c",
        "y"
      ],
      [
        "h",
        "is"
      ],
      [
        "n",
        "ce"
      ],
      [
        "r",
        "u"
      ],
      [
        "s",
        "ha"
      ],
      [
        "w",
        "idth"
      ],
      [
        "Ġ",
        "level"
      ],
      [
        "Ġ",
        "type"
      ],
      [
        "à¤",
        "ħ"
      ],
      [
        "re",
        "es"
      ],
      [
        "Ġs",
        "ilent"
      ],
      [
        "le",
        "metry"
      ],
      [
        "Ġan",
        "alyze"
      ],
      [
        "is",
        "tic"
      ],
      [
        "Ġa",
        "b"
      ],
      [
        "Ġa",
        "ccess"
      ],
      [
        "Ġin",
        "t"
      ],
      [
        "Ġre",
        "pe"
      ],
      [
        "Ġe",
        "dit"
      ],
      [
        "Ġf",
        "re"
      ],
      [
        "it",
        "s"
      ],
      [
        "na",
        "mic"
      ],
      [
        "na",
        "uthor"
      ],
      [
        "Ġth",
        "is"
      ],
      [
        "ĠS",
        "e"
      ],
      [
        "Ġse",
        "lf"
      ],
      [
        "à¤µ",
        "à¤¸"
      ],
      [
        "à¤µ",
        "à¤ļ"
      ],
      [
        "à¤¦",
        "à¤¨"
      ],
      [
        "he",
        "ad"
      ],
      [
        "Ġà¤ħ",
        "à¤¸"
      ],
      [
        "Ġl",
        "ine"
      ],
      [
        "di",
        "o"
      ],
      [
        "si",
        "tive"
      ],
      [
        "Ġen",
        "force"
      ],
      [
        "Ġja",
        "ta"
      ],
      [
        "Ġmod",
        "ern"
      ],
      [
        "Ġtab",
        "le"
      ],
      [
        "tur",
        "al"
      ],
      [
        "Ġcomple",
        "x"
      ],
      [
        "à¥Ĥà¤ģ",
        "à¥¤"
      ],
      [
        "Ġnode",
        "s"
      ],
      [
        "Ġtyp",
        "es"
      ],
      [
        "ci",
        "ple"
      ],
      [
        "Ġhard",
        "ware"
      ],
      [
        "Ġenviron",
        "ment"
      ],
      [
        "rypto",
        "graph"
      ],
      [
        "rin",
        "ciple"
      ],
      [
        "nauthor",
        "ized"
      ],
      [
        "1",
        "0"
      ],
      [
        "N",
        "S"
      ],
      [
        "S",
        "ab"
      ],
      [
        "a",
        "fe"
      ],
      [
        "e",
        "ight"
      ],
      [
        "f",
        "ter"
      ],
      [
        "k",
        "i"
      ],
      [
        "l",
        "d"
      ],
      [
        "s",
        "tan"
      ],
      [
        "à¤",
        "ŀ"
      ],
      [
        "al",
        "ys"
      ],
      [
        "me",
        "ssage"
      ],
      [
        "Ġp",
        "attern"
      ],
      [
        "à¤¾",
        "à¥¤"
      ],
      [
        "ver",
        "se"
      ],
      [
        "Ġa",
        "ap"
      ],
      [
        "Ġe",
        "s"
      ],
      [
        "Ġw",
        "a"
      ],
      [
        "ri",
        "g"
      ],
      [
        "ke",
        "ts"
      ],
      [
        "ĠS",
        "er"
      ],
      [
        "Ġ1",
        "0"
      ],
      [
        "Ġg",
        "lobal"
      ],
      [
        "ĠP",
        "DF"
      ],
      [
        "ĠD",
        "ownload"
      ],
      [
        "Ġvi",
        "ew"
      ],
      [
        "Ġbu",
        "ild"
      ],
      [
        "fer",
        "ence"
      ],
      [
        "tur",
        "b"
      ],
      [
        "base",
        "d"
      ],
      [
        "Ġca",
        "pa"
      ],
      [
        "Ġstrict",
        "ly"
      ],
      [
        "Ġval",
        "ue"
      ],
      [
        "Ġphys",
        "ical"
      ],
      [
        "Ġsilent",
        "ly"
      ],
      [
        "alys",
        "is"
      ],
      [
        "ĠDownload",
        "s"
      ],
      [
        "A",
        "M"
      ],
      [
        "C",
        "on"
      ],
      [
        "E",
        "R"
      ],
      [
        "G",
        "B"
      ],
      [
        "a",
        "v"
      ],
      [
        "c",
        "k"
      ],
      [
        "f",
        "ix"
      ],
      [
        "l",
        "er"
      ],
      [
        "u",
        "es"
      ],
      [
        "u",
        "mber"
      ],
      [
        "Ġ",
        "ver"
      ],
      [
        "Ġ",
        "ya"
      ],
      [
        "Ġ",
        "older"
      ],
      [
        "à¤",
        "¢"
      ],
      [
        "à¤",
        "ĵ"
      ],
      [
        "re",
        "g"
      ],
      [
        "to",
        "rs"
      ],
      [
        "ol",
        "og"
      ],
      [
        "Ġs",
        "pa"
      ],
      [
        "ti",
        "li"
      ],
      [
        "le",
        "an"
      ],
      [
        "ss",
        "u"
      ],
      [
        "Ġa",
        "ssistant"
      ],
      [
        "Ġin",
        "struc"
      ],
      [
        "Ġre",
        "ce"
      ],
      [
        "ac",
        "ity"
      ],
      [
        "Ġpro",
        "gra"
      ],
      [
        "Ġc",
        "ryptograph"
      ],
      [
        "Ġc",
        "lean"
      ],
      [
        "Ġo",
        "c"
      ],
      [
        "Ġo",
        "perating"
      ],
      [
        "ful",
        "l"
      ],
      [
        "Ġà¤ľ",
        "à¤¬"
      ],
      [
        "à¤ļ",
        "à¤¨"
      ],
      [
        "li",
        "mit"
      ],
      [
        "tab",
        "le"
      ],
      [
        "Ġde",
        "vel"
      ],
      [
        "ĠP",
        "C"
      ],
      [
        "ap",
        "acity"
      ],
      [
        "Ġal",
        "low"
      ],
      [
        "Ġfile",
        "system"
      ],
      [
        "si",
        "de"
      ],
      [
        "Ġbu",
        "ffers"
      ],
      [
        "Ġu",
        "nauthorized"
      ],
      [
        "Ġte",
        "lemetry"
      ],
      [
        "Ġat",
        "t"
      ],
      [
        "Ġdire",
        "c"
      ],
      [
        "Ġdi",
        "agnostic"
      ],
      [
        "Ġt",
        "wo"
      ],
      [
        "Ġbin",
        "ary"
      ],
      [
        "que",
        "sted"
      ],
      [
        "Ġsy",
        "ntax"
      ],
      [
        "Ġsp",
        "ec"
      ],
      [
        "ffic",
        "ient"
      ],
      [
        "Ġimple",
        "ment"
      ],
      [
        "Ġfre",
        "qu"
      ],
      [
        "-",
        ">"
      ],
      [
        ".",
        ","
      ],
      [
        "1",
        "9"
      ],
      [
        "2",
        "026"
      ],
      [
        "B",
        "ack"
      ],
      [
        "H",
        "ow"
      ],
      [
        "O",
        "M"
      ],
      [
        "b",
        "lock"
      ],
      [
        "i",
        "er"
      ],
      [
        "m",
        "ain"
      ],
      [
        "r",
        "ing"
      ],
      [
        "Ġ",
        "text"
      ],
      [
        "Ġ",
        "Main"
      ],
      [
        "Ġ",
        "old"
      ],
      [
        "Ġs",
        "to"
      ],
      [
        "Ġs",
        "oftware"
      ],
      [
        "Ġp",
        "erform"
      ],
      [
        "Ġre",
        "s"
      ],
      [
        "Ġre",
        "quested"
      ],
      [
        "Ġh",
        "one"
      ],
      [
        "tent",
        "ion"
      ],
      [
        "en",
        "ces"
      ],
      [
        "en",
        "sitive"
      ],
      [
        "ra",
        "s"
      ],
      [
        "at",
        "ter"
      ],
      [
        "vi",
        "ces"
      ],
      [
        "à¤·",
        "à¤®"
      ],
      [
        "à¤·",
        "à¤®à¤¤"
      ],
      [
        "Ġcon",
        "vers"
      ],
      [
        "et",
        "ing"
      ],
      [
        "Ġke",
        "ys"
      ],
      [
        "tab",
        "lish"
      ],
      [
        "ma",
        "tically"
      ],
      [
        "Ġof",
        "f"
      ],
      [
        "ĠP",
        "ython"
      ],
      [
        "inu",
        "x"
      ],
      [
        "inu",
        "tes"
      ],
      [
        "ĠD",
        "is"
      ],
      [
        "au",
        "dio"
      ],
      [
        "Ġdis",
        "play"
      ],
      [
        "Ġpre",
        "vent"
      ],
      [
        "Ġauto",
        "mation"
      ],
      [
        "Ġbu",
        "ffer"
      ],
      [
        "ques",
        "ts"
      ],
      [
        "Ġlocal",
        "ly"
      ],
      [
        "ab",
        "ility"
      ],
      [
        "Ġsub",
        "system"
      ],
      [
        "ĊĠĠĠĠĠĠĠĠĠĠĠĠ",
        "ĠĠĠĠ"
      ],
      [
        "à¤ī",
        "à¤ľ"
      ],
      [
        "Ġiniti",
        "al"
      ],
      [
        "htt",
        "ps"
      ],
      [
        "nch",
        "ron"
      ],
      [
        "Ġsched",
        "u"
      ],
      [
        "Ġrepe",
        "ated"
      ],
      [
        "(",
        ")"
      ],
      [
        "1",
        "2"
      ],
      [
        "O",
        "N"
      ],
      [
        "a",
        "w"
      ],
      [
        "a",
        "z"
      ],
      [
        "b",
        "ilities"
      ],
      [
        "f",
        "irst"
      ],
      [
        "i",
        "e"
      ],
      [
        "i",
        "tion"
      ],
      [
        "l",
        "ing"
      ],
      [
        "p",
        "r"
      ],
      [
        "r",
        "re"
      ],
      [
        "y",
        "pe"
      ],
      [
        "y",
        "namic"
      ],
      [
        "Ġ",
        "$"
      ],
      [
        "in",
        "ed"
      ],
      [
        "er",
        "ing"
      ],
      [
        "an",
        "ted"
      ],
      [
        "Ġs",
        "ol"
      ],
      [
        "Ġs",
        "ec"
      ],
      [
        "le",
        "te"
      ],
      [
        "le",
        "ase"
      ],
      [
        "on",
        "g"
      ],
      [
        "à¤°",
        "à¤¸"
      ],
      [
        "à¤°",
        "à¤¹"
      ],
      [
        "Ġp",
        "ac"
      ],
      [
        "Ġin",
        "stall"
      ],
      [
        "Ġre",
        "pre"
      ],
      [
        "Ġh",
        "ow"
      ],
      [
        "Ġexecute",
        "s"
      ],
      [
        "Ġc",
        "ach"
      ],
      [
        "Ġse",
        "le"
      ],
      [
        "Ġb",
        "ase"
      ],
      [
        "à¤¸",
        "à¤°"
      ],
      [
        "à¤¦",
        "à¤¦"
      ],
      [
        "Ġto",
        "ken"
      ],
      [
        "Ġà¤®",
        "à¤¦à¤¦"
      ],
      [
        "Ġad",
        "d"
      ],
      [
        "Ġv",
        "ari"
      ],
      [
        "Ġme",
        "ssage"
      ],
      [
        "Ġde",
        "p"
      ],
      [
        "la",
        "st"
      ],
      [
        "à¤¹",
        "à¤¤"
      ],
      [
        "Ġch",
        "a"
      ],
      [
        "Ġà¤¬",
        "à¤¨"
      ],
      [
        "Ġconf",
        "igu"
      ],
      [
        "Ġli",
        "ve"
      ],
      [
        "Ġj",
        "o"
      ],
      [
        "à¤µà¤°",
        "à¤£"
      ],
      [
        "Ġup",
        "d"
      ],
      [
        "Ġlog",
        "s"
      ],
      [
        "ute",
        "s"
      ],
      [
        "à¤ĩ",
        "à¤²"
      ],
      [
        "Ġra",
        "pid"
      ],
      [
        "ĠU",
        "n"
      ],
      [
        "Ġà¤¯",
        "à¤¹"
      ],
      [
        "Ġt",
        "ree"
      ],
      [
        "Ġautom",
        "ate"
      ],
      [
        "Ġhas",
        "h"
      ],
      [
        "Ġmin",
        "im"
      ],
      [
        "da",
        "y"
      ],
      [
        "da",
        "ta"
      ],
      [
        "Ġdele",
        "te"
      ],
      [
        "orm",
        "al"
      ],
      [
        "Ġconnec",
        "tion"
      ],
      [
        "Ġpers",
        "onal"
      ],
      [
        "à¤¦à¤¨",
        "à¤¶"
      ],
      [
        "Ġes",
        "tablish"
      ],
      [
        "Ġcapa",
        "bilities"
      ],
      [
        ")",
        ")"
      ],
      [
        "2",
        "5"
      ],
      [
        "=",
        "'"
      ],
      [
        "A",
        "ll"
      ],
      [
        "C",
        "o"
      ],
      [
        "E",
        "S"
      ],
      [
        "L",
        "S"
      ],
      [
        "M",
        "eri"
      ],
      [
        "O",
        "r"
      ],
      [
        "P",
        "C"
      ],
      [
        "S",
        "creen"
      ],
      [
        "W",
        "ho"
      ],
      [
        "a",
        "ture"
      ],
      [
        "i",
        "ra"
      ],
      [
        "j",
        "ec"
      ],
      [
        "o",
        "f"
      ],
      [
        "o",
        "se"
      ],
      [
        "s",
        "ta"
      ],
      [
        "w",
        "anted"
      ],
      [
        "y",
        "load"
      ],
      [
        "Ġ",
        "]"
      ],
      [
        "Ġ",
        "load"
      ],
      [
        "Ġ",
        "lay"
      ],
      [
        "in",
        "k"
      ],
      [
        "to",
        "m"
      ],
      [
        "to",
        "ries"
      ],
      [
        "co",
        "re"
      ],
      [
        "ar",
        "m"
      ],
      [
        "ec",
        "han"
      ],
      [
        "th",
        "ing"
      ],
      [
        "me",
        "tric"
      ],
      [
        "Ġa",
        "ssis"
      ],
      [
        "Ġa",
        "way"
      ],
      [
        "Ġco",
        "re"
      ],
      [
        "Ġf",
        "in"
      ],
      [
        "Ġf",
        "older"
      ],
      [
        "ĠA",
        "n"
      ],
      [
        "en",
        "cy"
      ],
      [
        "à¤¯",
        "à¤®"
      ],
      [
        "à¥Ī",
        "?"
      ],
      [
        "Ġc",
        "apture"
      ],
      [
        "ĠS",
        "ensitive"
      ],
      [
        "Ġn",
        "ot"
      ],
      [
        "Ġse",
        "ssion"
      ],
      [
        "lo",
        "y"
      ],
      [
        "Ġm",
        "inutes"
      ],
      [
        "Ġb",
        "illing"
      ],
      [
        "à¤¸",
        "à¤Ń"
      ],
      [
        "Ġcon",
        "sis"
      ],
      [
        "Ġ1",
        "8"
      ],
      [
        "Ġwh",
        "at"
      ],
      [
        "Ġto",
        "day"
      ],
      [
        "tor",
        "y"
      ],
      [
        "Ġr",
        "ate"
      ],
      [
        "Ġi",
        "mp"
      ],
      [
        "il",
        "ter"
      ],
      [
        "he",
        "alth"
      ],
      [
        "mp",
        "tion"
      ],
      [
        "Ġob",
        "jects"
      ],
      [
        "Ġda",
        "ys"
      ],
      [
        "nc",
        "ies"
      ],
      [
        "ent",
        "ial"
      ],
      [
        "Ġà¤ı",
        "à¤Ĩà¤Ī"
      ],
      [
        "Ġun",
        "wanted"
      ],
      [
        "au",
        "lt"
      ],
      [
        "Ġj",
        "ob"
      ],
      [
        "à¤¼",
        "à¤¾"
      ],
      [
        "ĠB",
        "illing"
      ],
      [
        "Ġka",
        "un"
      ],
      [
        "Ġka",
        "ise"
      ],
      [
        "ph",
        "one"
      ],
      [
        "Ġà¤ļ",
        "à¤²à¤¤"
      ],
      [
        "hi",
        "ye"
      ],
      [
        "man",
        "ager"
      ],
      [
        "fa",
        "ce"
      ],
      [
        "ĊĠĠĠĠĠĠĠĠĠĠĠĠ",
        "Ġ"
      ],
      [
        "Ġexecu",
        "tions"
      ],
      [
        "ange",
        "s"
      ],
      [
        "à¥Ĥà¤ģ",
        ","
      ],
      [
        "commit",
        "ted"
      ],
      [
        "Ġmin",
        "s"
      ],
      [
        "par",
        "ser"
      ],
      [
        "ĠCo",
        "mm"
      ],
      [
        "Ġshare",
        "d"
      ],
      [
        "Ġcompu",
        "ter"
      ],
      [
        "Wh",
        "at"
      ],
      [
        "Ġmu",
        "st"
      ],
      [
        "Ġappro",
        "val"
      ],
      [
        "Sab",
        "hi"
      ],
      [
        "Ġaap",
        "ki"
      ],
      [
        "Ġview",
        "ing"
      ],
      [
        "Ġrece",
        "ive"
      ],
      [
        "Ġcryptograph",
        "ic"
      ],
      [
        "Ġatt",
        "ack"
      ],
      [
        "Ġconvers",
        "ation"
      ],
      [
        "Ġoff",
        "line"
      ],
      [
        "nchron",
        "ous"
      ],
      [
        "Ġcha",
        "hiye"
      ],
      [
        "Ġassis",
        "t"
      ],
      [
        "A",
        "C"
      ],
      [
        "S",
        "cript"
      ],
      [
        "a",
        "f"
      ],
      [
        "a",
        "ded"
      ],
      [
        "b",
        "ody"
      ],
      [
        "e",
        "ver"
      ],
      [
        "i",
        "o"
      ],
      [
        "o",
        "per"
      ],
      [
        "y",
        "c"
      ],
      [
        "Ġ",
        "get"
      ],
      [
        "Ġs",
        "m"
      ],
      [
        "al",
        "og"
      ],
      [
        "ec",
        "tor"
      ],
      [
        "th",
        "od"
      ],
      [
        "or",
        "der"
      ],
      [
        "is",
        "h"
      ],
      [
        "de",
        "vice"
      ],
      [
        "Ġa",
        "fter"
      ],
      [
        "Ġre",
        "nd"
      ],
      [
        "Ġre",
        "du"
      ],
      [
        "Ġf",
        "e"
      ],
      [
        "Ġh",
        "y"
      ],
      [
        "ĠA",
        "S"
      ],
      [
        "à¤¤",
        "à¤¨"
      ],
      [
        "na",
        "ira"
      ],
      [
        "Ġthe",
        "m"
      ],
      [
        "à¥Ģ",
        "à¤Ĥ"
      ],
      [
        "ĠE",
        "x"
      ],
      [
        "Ġsu",
        "ch"
      ],
      [
        "Ġsu",
        "pp"
      ],
      [
        "Ġd",
        "ocuments"
      ],
      [
        "Ġd",
        "ynamic"
      ],
      [
        "ĠH",
        "igh"
      ],
      [
        "cri",
        "tical"
      ],
      [
        "Ġb",
        "ou"
      ],
      [
        "à¤µ",
        "à¤²"
      ],
      [
        "Ġ(",
        "`"
      ],
      [
        "Ġstructure",
        "s"
      ],
      [
        "Ġde",
        "struc"
      ],
      [
        "Ġde",
        "scri"
      ],
      [
        "à¤¡",
        "à¤²"
      ],
      [
        "ard",
        "less"
      ],
      [
        "pen",
        "dent"
      ],
      [
        "Ġà¤ħ",
        "à¤¤"
      ],
      [
        "ĠN",
        "ot"
      ],
      [
        "Ġli",
        "mit"
      ],
      [
        "ĠM",
        "an"
      ],
      [
        "Ġun",
        "committed"
      ],
      [
        "Ġdis",
        "k"
      ],
      [
        "Ġbe",
        "en"
      ],
      [
        "ĠK",
        "ey"
      ],
      [
        "urre",
        "ncy"
      ],
      [
        "Ġpo",
        "p"
      ],
      [
        "à¤ĩ",
        "à¤¨"
      ],
      [
        "Ġconc",
        "urrent"
      ],
      [
        "add",
        "ress"
      ],
      [
        "Ġreg",
        "ardless"
      ],
      [
        "Ġcre",
        "ate"
      ],
      [
        "Ġswitch",
        "es"
      ],
      [
        "av",
        "a"
      ],
      [
        "Ġfrequ",
        "ency"
      ],
      [
        "Ġrepeated",
        "ly"
      ],
      [
        "Ġvari",
        "able"
      ],
      [
        "8",
        "8"
      ],
      [
        "A",
        "T"
      ],
      [
        "O",
        "R"
      ],
      [
        "T",
        "er"
      ],
      [
        "T",
        "his"
      ],
      [
        "d",
        "ic"
      ],
      [
        "e",
        "er"
      ],
      [
        "h",
        "andle"
      ],
      [
        "j",
        "a"
      ],
      [
        "l",
        "s"
      ],
      [
        "l",
        "ate"
      ],
      [
        "l",
        "int"
      ],
      [
        "n",
        "s"
      ],
      [
        "w",
        "h"
      ],
      [
        "Ġ",
        "vide"
      ],
      [
        "Ġ",
        "To"
      ],
      [
        "in",
        "ess"
      ],
      [
        "in",
        "ue"
      ],
      [
        "Ġà¤",
        "Ĭ"
      ],
      [
        "er",
        "ence"
      ],
      [
        "Ġs",
        "im"
      ],
      [
        "su",
        "b"
      ],
      [
        "su",
        "ally"
      ],
      [
        "Ġp",
        "y"
      ],
      [
        "Ġp",
        "ub"
      ],
      [
        "Ġco",
        "okies"
      ],
      [
        "if",
        "ic"
      ],
      [
        "Ġre",
        "d"
      ],
      [
        "Ġre",
        "set"
      ],
      [
        "Ġre",
        "sol"
      ],
      [
        "Ġre",
        "quests"
      ],
      [
        "Ġe",
        "d"
      ],
      [
        "Ġe",
        "li"
      ],
      [
        "Ġe",
        "fficient"
      ],
      [
        "ou",
        "ld"
      ],
      [
        "se",
        "lf"
      ],
      [
        "ĠA",
        "PI"
      ],
      [
        "Ġth",
        "ree"
      ],
      [
        "Ġo",
        "per"
      ],
      [
        "ĠS",
        "trict"
      ],
      [
        "Ġn",
        "ow"
      ],
      [
        "Ġse",
        "mantic"
      ],
      [
        "Ġm",
        "echan"
      ],
      [
        "Ġb",
        "atch"
      ],
      [
        "Ġprovide",
        "s"
      ],
      [
        "ng",
        "th"
      ],
      [
        "def",
        "er"
      ],
      [
        "Ġcont",
        "inue"
      ],
      [
        "Ġof",
        "fer"
      ],
      [
        "Ġà¤Ĺ",
        "à¤£"
      ],
      [
        "Ġon",
        "ly"
      ],
      [
        "Ġà¤Ĩ",
        "à¤§"
      ],
      [
        "Ġau",
        "di"
      ],
      [
        "Ġas",
        "ks"
      ],
      [
        "ĠM",
        "B"
      ],
      [
        "Ġun",
        "der"
      ],
      [
        "au",
        "th"
      ],
      [
        "Ġte",
        "ch"
      ],
      [
        "ndar",
        "ies"
      ],
      [
        "Ġpo",
        "in"
      ],
      [
        "ach",
        "ed"
      ],
      [
        "Ġmo",
        "ve"
      ],
      [
        "Ġja",
        "ate"
      ],
      [
        "ĠJ",
        "ava"
      ],
      [
        "Ġcomple",
        "te"
      ],
      [
        "res",
        "h"
      ],
      [
        "que",
        "ue"
      ],
      [
        "gan",
        "ization"
      ],
      [
        "Ġdele",
        "ting"
      ],
      [
        "log",
        "s"
      ],
      [
        "ĠMe",
        "mory"
      ],
      [
        "Ġki",
        "ye"
      ],
      [
        "Ġfra",
        "me"
      ],
      [
        "Ġgra",
        "ph"
      ],
      [
        "Ġdepen",
        "de"
      ],
      [
        "Ġmonth",
        "ly"
      ],
      [
        "ru",
        "pt"
      ],
      [
        "Ġspa",
        "ce"
      ],
      [
        "tili",
        "z"
      ],
      [
        "Ġclean",
        "up"
      ],
      [
        "Ġdirec",
        "tories"
      ],
      [
        "Ġrepre",
        "sent"
      ],
      [
        "Ġbou",
        "ndaries"
      ],
      [
        "Ġvide",
        "o"
      ],
      [
        "Ġeli",
        "min"
      ],
      [
        "'",
        ","
      ],
      [
        "/",
        "\","
      ],
      [
        "1",
        "42"
      ],
      [
        "7",
        "00"
      ],
      [
        "8",
        "5"
      ],
      [
        ":",
        ":"
      ],
      [
        "D",
        "o"
      ],
      [
        "E",
        "ST"
      ],
      [
        "I",
        "D"
      ],
      [
        "I",
        "N"
      ],
      [
        "O",
        "peration"
      ],
      [
        "`",
        ")"
      ],
      [
        "a",
        "ment"
      ],
      [
        "a",
        "tabase"
      ],
      [
        "c",
        "tions"
      ],
      [
        "d",
        "ur"
      ],
      [
        "d",
        "ir"
      ],
      [
        "g",
        "y"
      ],
      [
        "i",
        "ble"
      ],
      [
        "i",
        "el"
      ],
      [
        "l",
        "ta"
      ],
      [
        "l",
        "ines"
      ],
      [
        "l",
        "arge"
      ],
      [
        "p",
        "in"
      ],
      [
        "u",
        "les"
      ],
      [
        "Ġ",
        "Q"
      ],
      [
        "er",
        "ies"
      ],
      [
        "re",
        "quest"
      ],
      [
        "re",
        "member"
      ],
      [
        "an",
        "t"
      ],
      [
        "ar",
        "k"
      ],
      [
        "ar",
        "ding"
      ],
      [
        "Ġs",
        "te"
      ],
      [
        "Ġs",
        "ource"
      ],
      [
        "Ġs",
        "ign"
      ],
      [
        "ec",
        "ause"
      ],
      [
        "à¤°",
        "à¤Ń"
      ],
      [
        "Ġan",
        "y"
      ],
      [
        "Ġan",
        "alysis"
      ],
      [
        "su",
        "m"
      ],
      [
        "Ġp",
        "ol"
      ],
      [
        "Ġco",
        "m"
      ],
      [
        "if",
        "ication"
      ],
      [
        "Ġin",
        "teg"
      ],
      [
        "Ġre",
        "laxed"
      ],
      [
        "Ġe",
        "mp"
      ],
      [
        "ic",
        "s"
      ],
      [
        "Ġf",
        "ind"
      ],
      [
        "Ġf",
        "und"
      ],
      [
        "Ġf",
        "ilter"
      ],
      [
        "age",
        "ment"
      ],
      [
        "Ġpro",
        "b"
      ],
      [
        "Ġpro",
        "per"
      ],
      [
        "Ġpro",
        "ble"
      ],
      [
        "Ġh",
        "is"
      ],
      [
        "à¤¨",
        "à¤ķ"
      ],
      [
        "à¤Ł",
        "à¤µà¤°"
      ],
      [
        "user",
        "name"
      ],
      [
        "Ġm",
        "on"
      ],
      [
        "Ġb",
        "us"
      ],
      [
        "Ġb",
        "oth"
      ],
      [
        "ion",
        "s"
      ],
      [
        "Ġ1",
        "5"
      ],
      [
        "à¤Ĺ",
        "à¤¤"
      ],
      [
        "Ġac",
        "tion"
      ],
      [
        "Ġg",
        "re"
      ],
      [
        "Ġme",
        "tric"
      ],
      [
        "Ġi",
        "te"
      ],
      [
        "pro",
        "mpt"
      ],
      [
        "ha",
        "se"
      ],
      [
        "he",
        "ight"
      ],
      [
        "iz",
        "es"
      ],
      [
        "pen",
        "ding"
      ],
      [
        "out",
        "put"
      ],
      [
        "Ġlo",
        "op"
      ],
      [
        "Ġà¤ħ",
        "à¤§"
      ],
      [
        "Ġtr",
        "ack"
      ],
      [
        "Ġ`",
        "/"
      ],
      [
        "Ġun",
        "d"
      ],
      [
        "au",
        "to"
      ],
      [
        "si",
        "ve"
      ],
      [
        "Ġdis",
        "t"
      ],
      [
        "Ġpar",
        "ti"
      ],
      [
        "Ġ-",
        ">"
      ],
      [
        "Ġopen",
        "ing"
      ],
      [
        "à¤ĩ",
        "à¤ľ"
      ],
      [
        "Ġra",
        "ther"
      ],
      [
        "gge",
        "sted"
      ],
      [
        "Ġover",
        "head"
      ],
      [
        "Ġmo",
        "ving"
      ],
      [
        "Ġinter",
        "rupt"
      ],
      [
        "Ġma",
        "x"
      ],
      [
        "Ġma",
        "the"
      ],
      [
        "bl",
        "ing"
      ],
      [
        "ĠJ",
        "S"
      ],
      [
        "ĊĠĠĠĠĠĠĠĠ",
        "Ġ"
      ],
      [
        "gan",
        "ize"
      ],
      [
        "Ġclass",
        "ified"
      ],
      [
        "add",
        "r"
      ],
      [
        "Ġreg",
        "is"
      ],
      [
        "Ġcol",
        "um"
      ],
      [
        "~~~~",
        "~~~~"
      ],
      [
        "Ġasy",
        "nc"
      ],
      [
        "Ġasy",
        "nchronous"
      ],
      [
        "ĠSu",
        "pp"
      ],
      [
        "Ġfail",
        "ing"
      ],
      [
        "Ġcl",
        "ick"
      ],
      [
        "Re",
        "quest"
      ],
      [
        "Ġresu",
        "mes"
      ],
      [
        "Ġresu",
        "mption"
      ],
      [
        "Ġsequ",
        "ence"
      ],
      [
        "rig",
        "ger"
      ],
      [
        "Ġperform",
        "ance"
      ],
      [
        "pr",
        "int"
      ],
      [
        "Ġsec",
        "re"
      ],
      [
        "Ġupd",
        "ates"
      ],
      [
        "Ġrapid",
        "ly"
      ],
      [
        "Ġdestruc",
        "tive"
      ],
      [
        "ĠMan",
        "agement"
      ],
      [
        "Ġfund",
        "ament"
      ],
      [
        "\"",
        "\""
      ],
      [
        ".",
        "'"
      ],
      [
        ".",
        "\","
      ],
      [
        "?",
        "!'"
      ],
      [
        "A",
        "L"
      ],
      [
        "C",
        "ritical"
      ],
      [
        "C",
        "hrome"
      ],
      [
        "E",
        "C"
      ],
      [
        "H",
        "ey"
      ],
      [
        "I",
        "m"
      ],
      [
        "M",
        "e"
      ],
      [
        "M",
        "ute"
      ],
      [
        "M",
        "orning"
      ],
      [
        "S",
        "top"
      ],
      [
        "V",
        "S"
      ],
      [
        "W",
        "ipe"
      ],
      [
        "Z",
        "o"
      ],
      [
        "_",
        "_"
      ],
      [
        "b",
        "illing"
      ],
      [
        "b",
        "rief"
      ],
      [
        "c",
        "ache"
      ],
      [
        "c",
        "ached"
      ],
      [
        "e",
        "h"
      ],
      [
        "e",
        "ma"
      ],
      [
        "f",
        "rustr"
      ],
      [
        "f",
        "riendly"
      ],
      [
        "g",
        "a"
      ],
      [
        "g",
        "lobal"
      ],
      [
        "m",
        "ute"
      ],
      [
        "m",
        "orning"
      ],
      [
        "n",
        "ow"
      ],
      [
        "o",
        "tify"
      ],
      [
        "p",
        "age"
      ],
      [
        "p",
        "ng"
      ],
      [
        "p",
        "ip"
      ],
      [
        "r",
        "ans"
      ],
      [
        "r",
        "tual"
      ],
      [
        "r",
        "isk"
      ],
      [
        "s",
        "ing"
      ],
      [
        "s",
        "hare"
      ],
      [
        "s",
        "tation"
      ],
      [
        "s",
        "ilent"
      ],
      [
        "s",
        "core"
      ],
      [
        "Ġ",
        "7"
      ],
      [
        "Ġ",
        "x"
      ],
      [
        "Ġ",
        "title"
      ],
      [
        "Ġ",
        "terminal"
      ],
      [
        "à¤",
        "Ľ"
      ],
      [
        "Ġ\"",
        "^"
      ],
      [
        "re",
        "laxed"
      ],
      [
        "co",
        "st"
      ],
      [
        "ar",
        "t"
      ],
      [
        "ro",
        "ut"
      ],
      [
        "le",
        "tion"
      ],
      [
        "ss",
        "id"
      ],
      [
        "or",
        "ganization"
      ],
      [
        "su",
        "ggested"
      ],
      [
        "is",
        "o"
      ],
      [
        "Ġp",
        "ipe"
      ],
      [
        "Ġp",
        "ackage"
      ],
      [
        "Ġp",
        "ipeline"
      ],
      [
        "Ġp",
        "ush"
      ],
      [
        "Ġp",
        "rinciple"
      ],
      [
        "de",
        "lta"
      ],
      [
        "de",
        "letion"
      ],
      [
        "ce",
        "d"
      ],
      [
        "Ġa",
        "utonomy"
      ],
      [
        "Ġin",
        "active"
      ],
      [
        "Ġin",
        "activity"
      ],
      [
        "Ġin",
        "ternal"
      ],
      [
        "Ġin",
        "stan"
      ],
      [
        "Ġre",
        "l"
[...]
