{
  "version": "1.0",
  "truncation": null,
  "padding": null,
  "added_tokens": [
    {
      "id": 0,
      "content": "<|pad|>",
      "single_word": false,
      "lstrip": false,
      "rstrip": false,
      "normalized": false,
      "special": true
    },
    {
      "id": 1,
      "content": "<|endoftext|>",
      "single_word": false,
      "lstrip": false,
      "rstrip": false,
      "normalized": false,
      "special": true
    },
    {
      "id": 2,
      "content": "<|system|>",
      "single_word": false,
      "lstrip": false,
      "rstrip": false,
      "normalized": false,
      "special": true
    },
    {
      "id": 3,
      "content": "<|user|>",
      "single_word": false,
      "lstrip": false,
      "rstrip": false,
      "normalized": false,
      "special": true
    },
    {
      "id": 4,
      "content": "<|assistant|>",
      "single_word": false,
      "lstrip": false,
      "rstrip": false,
      "normalized": false,
      "special": true
    },
    {
      "id": 5,
      "content": "<|tool_call|>",
      "single_word": false,
      "lstrip": false,
      "rstrip": false,
      "normalized": false,
      "special": true
    },
    {
      "id": 6,
      "content": "<|tool_result|>",
      "single_word": false,
      "lstrip": false,
      "rstrip": false,
      "normalized": false,
      "special": true
    },
    {
      "id": 7,
      "content": "<|thought|>",
      "single_word": false,
      "lstrip": false,
      "rstrip": false,
      "normalized": false,
      "special": true
    },
    {
      "id": 8,
      "content": "<|plan|>",
      "single_word": false,
      "lstrip": false,
      "rstrip": false,
      "normalized": false,
      "special": true
    },
    {
      "id": 9,
      "content": "<|verify|>",
      "single_word": false,
      "lstrip": false,
      "rstrip": false,
      "normalized": false,
      "special": true
    },
    {
      "id": 10,
      "content": "<|unk|>",
      "single_word": false,
      "lstrip": false,
      "rstrip": false,
      "normalized": false,
      "special": true
    },
    {
      "id": 1507,
      "content": "<|intent|>",
      "single_word": false,
      "lstrip": false,
      "rstrip": false,
      "normalized": false,
      "special": true
    },
    {
      "id": 1508,
      "content": "<|final|>",
      "single_word": false,
      "lstrip": false,
      "rstrip": false,
      "normalized": false,
      "special": true
    }
  ],
  "normalizer": {
    "type": "Sequence",
    "normalizers": [
      {
        "type": "NFKC"
      }
    ]
  },
  "pre_tokenizer": {
    "type": "Sequence",
    "pretokenizers": [
      {
        "type": "ByteLevel",
        "add_prefix_space": false,
        "trim_offsets": true,
        "use_regex": true
      }
    ]
  },
  "post_processor": null,
  "decoder": {
    "type": "ByteLevel",
    "add_prefix_space": true,
    "trim_offsets": true,
    "use_regex": true
  },
  "model": {
    "type": "BPE",
    "dropout": null,
    "unk_token": "<|unk|>",
    "continuing_subword_prefix": null,
    "end_of_word_suffix": null,
    "fuse_unk": false,
    "byte_fallback": false,
    "ignore_merges": false,
    "vocab": {
      "<|pad|>": 0,
      "<|endoftext|>": 1,
      "<|system|>": 2,
      "<|user|>": 3,
      "<|assistant|>": 4,
      "<|tool_call|>": 5,
      "<|tool_result|>": 6,
      "<|thought|>": 7,
      "<|plan|>": 8,
      "<|verify|>": 9,
      "<|unk|>": 10,
      "!": 11,
      "\"": 12,
      "#": 13,
      "$": 14,
      "%": 15,
      "&": 16,
      "'": 17,
      "(": 18,
      ")": 19,
      "*": 20,
      "+": 21,
      ",": 22,
      "-": 23,
      ".": 24,
      "/": 25,
      "0": 26,
      "1": 27,
      "2": 28,
      "3": 29,
      "4": 30,
      "5": 31,
      "6": 32,
      "7": 33,
      "8": 34,
      "9": 35,
      ":": 36,
      ";": 37,
      "<": 38,
      "=": 39,
      ">": 40,
      "?": 41,
      "@": 42,
      "A": 43,
      "B": 44,
      "C": 45,
      "D": 46,
      "E": 47,
      "F": 48,
      "G": 49,
      "H": 50,
      "I": 51,
      "J": 52,
      "K": 53,
      "L": 54,
      "M": 55,
      "N": 56,
      "O": 57,
      "P": 58,
      "Q": 59,
      "R": 60,
      "S": 61,
      "T": 62,
      "U": 63,
      "V": 64,
      "W": 65,
      "X": 66,
      "Y": 67,
      "Z": 68,
      "[": 69,
      "\\": 70,
      "]": 71,
      "^": 72,
      "_": 73,
      "`": 74,
      "a": 75,
      "b": 76,
      "c": 77,
      "d": 78,
      "e": 79,
      "f": 80,
      "g": 81,
      "h": 82,
      "i": 83,
      "j": 84,
      "k": 85,
      "l": 86,
      "m": 87,
      "n": 88,
      "o": 89,
      "p": 90,
      "q": 91,
      "r": 92,
      "s": 93,
      "t": 94,
      "u": 95,
      "v": 96,
      "w": 97,
      "x": 98,
      "y": 99,
      "z": 100,
      "{": 101,
      "|": 102,
      "}": 103,
      "~": 104,
      "¡": 105,
      "¢": 106,
      "£": 107,
      "¤": 108,
      "¥": 109,
      "¦": 110,
      "§": 111,
      "¨": 112,
      "©": 113,
      "ª": 114,
      "«": 115,
      "¬": 116,
      "®": 117,
      "¯": 118,
      "°": 119,
      "±": 120,
      "²": 121,
      "³": 122,
      "´": 123,
      "µ": 124,
      "¶": 125,
      "·": 126,
      "¸": 127,
      "¹": 128,
      "º": 129,
      "»": 130,
      "¼": 131,
      "½": 132,
      "¾": 133,
      "¿": 134,
      "À": 135,
      "Á": 136,
      "Â": 137,
      "Ã": 138,
      "Ä": 139,
      "Å": 140,
      "Æ": 141,
      "Ç": 142,
      "È": 143,
      "É": 144,
      "Ê": 145,
      "Ë": 146,
      "Ì": 147,
      "Í": 148,
      "Î": 149,
      "Ï": 150,
      "Ð": 151,
      "Ñ": 152,
      "Ò": 153,
      "Ó": 154,
      "Ô": 155,
      "Õ": 156,
      "Ö": 157,
      "×": 158,
      "Ø": 159,
      "Ù": 160,
      "Ú": 161,
      "Û": 162,
      "Ü": 163,
      "Ý": 164,
      "Þ": 165,
      "ß": 166,
      "à": 167,
      "á": 168,
      "â": 169,
      "ã": 170,
      "ä": 171,
      "å": 172,
      "æ": 173,
      "ç": 174,
      "è": 175,
      "é": 176,
      "ê": 177,
      "ë": 178,
      "ì": 179,
      "í": 180,
      "î": 181,
      "ï": 182,
      "ð": 183,
      "ñ": 184,
      "ò": 185,
      "ó": 186,
      "ô": 187,
      "õ": 188,
      "ö": 189,
      "÷": 190,
      "ø": 191,
      "ù": 192,
      "ú": 193,
      "û": 194,
      "ü": 195,
      "ý": 196,
      "þ": 197,
      "ÿ": 198,
      "Ā": 199,
      "ā": 200,
      "Ă": 201,
      "ă": 202,
      "Ą": 203,
      "ą": 204,
      "Ć": 205,
      "ć": 206,
      "Ĉ": 207,
      "ĉ": 208,
      "Ċ": 209,
      "ċ": 210,
      "Č": 211,
      "č": 212,
      "Ď": 213,
      "ď": 214,
      "Đ": 215,
      "đ": 216,
      "Ē": 217,
      "ē": 218,
      "Ĕ": 219,
      "ĕ": 220,
      "Ė": 221,
      "ė": 222,
      "Ę": 223,
      "ę": 224,
      "Ě": 225,
      "ě": 226,
      "Ĝ": 227,
      "ĝ": 228,
      "Ğ": 229,
      "ğ": 230,
      "Ġ": 231,
      "ġ": 232,
      "Ģ": 233,
      "ģ": 234,
      "Ĥ": 235,
      "ĥ": 236,
      "Ħ": 237,
      "ħ": 238,
      "Ĩ": 239,
      "ĩ": 240,
      "Ī": 241,
      "ī": 242,
      "Ĭ": 243,
      "ĭ": 244,
      "Į": 245,
      "į": 246,
      "İ": 247,
      "ı": 248,
      "Ĳ": 249,
      "ĳ": 250,
      "Ĵ": 251,
      "ĵ": 252,
      "Ķ": 253,
      "ķ": 254,
      "ĸ": 255,
      "Ĺ": 256,
      "ĺ": 257,
      "Ļ": 258,
      "ļ": 259,
      "Ľ": 260,
      "ľ": 261,
      "Ŀ": 262,
      "ŀ": 263,
      "Ł": 264,
      "ł": 265,
      "Ń": 266,
      "te": 267,
      "à¤": 268,
      "re": 269,
      "in": 270,
      "Ġ\"": 271,
      "th": 272,
      "Ġa": 273,
      "\":": 274,
      "er": 275,
      "me": 276,
      "ou": 277,
      "Ġs": 278,
      "or": 279,
      "ing": 280,
      "at": 281,
      "ol": 282,
      "to": 283,
      "ar": 284,
      "nt": 285,
      "al": 286,
      "on": 287,
      "ro": 288,
      "ul": 289,
      "ste": 290,
      "se": 291,
      "{\"": 292,
      "Ġth": 293,
      "ac": 294,
      "st": 295,
      "nd": 296,
      "à¥": 297,
      "\",": 298,
      "yste": 299,
      "ystem": 300,
      "Ġh": 301,
      "Ġp": 302,
      "Ġà¤": 303,
      "ume": 304,
      "Ġc": 305,
      "ti": 306,
      "ai": 307,
      "ful": 308,
      "ve": 309,
      "<|": 310,
      "gh": 311,
      "|>": 312,
      "Ġto": 313,
      "ser": 314,
      "Ġf": 315,
      "Ġsystem": 316,
      "es": 317,
      "ght": 318,
      "Ġre": 319,
      "ought": 320,
      "le": 321,
      "ĠA": 322,
      "Ġpro": 323,
      "na": 324,
      "ra": 325,
      "Ġi": 326,
      "el": 327,
      "si": 328,
      "ĠN": 329,
      "Ġo": 330,
      "tt": 331,
      "nts": 332,
      "ĠAI": 333,
      "tool": 334,
      "sta": 335,
      "aira": 336,
      "Ġop": 337,
      "ch": 338,
      "cal": 339,
      "call": 340,
      "gume": 341,
      "}}": 342,
      "Ġ{\"": 343,
      "Ġas": 344,
      "Ġare": 345,
      "erat": 346,
      "argume": 347,
      "acti": 348,
      "name": 349,
      "ĠNaira": 350,
      "Ġoperat": 351,
      "arguments": 352,
      "Ġoperating": 353,
      "ate": 354,
      "mp": 355,
      "Ġ3": 356,
      "Ġin": 357,
      "ter": 358,
      "Ġhel": 359,
      "Ġhelp": 360,
      "You": 361,
      "qu": 362,
      "Ġthe": 363,
      "Ġthought": 364,
      "Ġproacti": 365,
      "Ġis": 366,
      "sista": 367,
      "Ġassista": 368,
      "Ġhelpful": 369,
      "Ġthoughtful": 370,
      "Ġproactive": 371,
      "Ġassistant": 372,
      "an": 373,
      "wser": 374,
      "Ġl": 375,
      "Ġw": 376,
      "Ġy": 377,
      "ori": 378,
      "atu": 379,
      "olume": 380,
      "rowser": 381,
      "sett": 382,
      "setting": 383,
      "browser": 384,
      "ec": 385,
      "ge": 386,
      "ke": 387,
      "Ġd": 388,
      "mem": 389,
      "arch": 390,
      "='": 391,
      "od": 392,
      "volume": 393,
      "yth": 394,
      "Ġand": 395,
      "ython": 396,
      "Python": 397,
      "av": 398,
      "ces": 399,
      "à¤¾": 400,
      "Ġst": 401,
      "search": 402,
      "atus": 403,
      "ot": 404,
      "sh": 405,
      "ue": 406,
      "ĠS": 407,
      "Ġm": 408,
      "à¤°": 409,
      "ory": 410,
      "olor": 411,
      "Ġcolor": 412,
      "Ġyou": 413,
      "orite": 414,
      "avorite": 415,
      "bac": 416,
      "en": 417,
      "ex": 418,
      "ref": 419,
      "res": 420,
      "thought": 421,
      "ery": 422,
      "ati": 423,
      "ave": 424,
      "pc": 425,
      "pi": 426,
      "Ġk": 427,
      "Ġu": 428,
      "ĠPython": 429,
      "act": 430,
      "nding": 431,
      "à¥į": 432,
      "query": 433,
      "memory": 434,
      "ation": 435,
      "**": 436,
      "User": 437,
      "age": 438,
      "ce": 439,
      "da": 440,
      "et": 441,
      "eal": 442,
      "ith": 443,
      "po": 444,
      "system": 445,
      "tre": 446,
      "ub": 447,
      "uc": 448,
      "val": 449,
      "Ġn": 450,
      "Ġte": 451,
      "red": 452,
      "à¥ĩ": 453,
      "Ġà¤ķ": 454,
      "settings": 455,
      "ealth": 456,
      "trending": 457,
      "\"}": 458,
      "',": 459,
      "ab": 460,
      "ase": 461,
      "ld": 462,
      "li": 463,
      "mm": 464,
      "py": 465,
      "ts": 466,
      "ur": 467,
      "ut": 468,
      "ute": 469,
      "vi": 470,
      "à¤¯": 471,
      "ard": 472,
      "Ġthat": 473,
      "status": 474,
      "à¥Ģ": 475,
      "Ġhai": 476,
      "ang": 477,
      "kend": 478,
      "cess": 479,
      "backend": 480,
      "value": 481,
      "\"}}": 482,
      "14": 483,
      "as": 484,
      "ax": 485,
      "cre": 486,
      "ed": 487,
      "gate": 488,
      "ps": 489,
      "put": 490,
      "tput": 491,
      "Ġ(": 492,
      "Ġ2": 493,
      "Ġt": 494,
      "Ġon": 495,
      "Ġex": 496,
      "à¤¤": 497,
      "inter": 498,
      "output": 499,
      "à¥Ī": 500,
      "Ġpref": 501,
      "Ġfavorite": 502,
      "Ġrequ": 503,
      "lease": 504,
      "shot": 505,
      "Ġyour": 506,
      "enshot": 507,
      "uccess": 508,
      "creenshot": 509,
      "Ġexec": 510,
      "//": 511,
      "://": 512,
      "To": 513,
      "bo": 514,
      "ber": 515,
      "ct": 516,
      "ere": 517,
      "este": 518,
      "fact": 519,
      "il": 520,
      "it": 521,
      "iz": 522,
      "nal": 523,
      "success": 524,
      "screenshot": 525,
      "uage": 526,
      "ĠF": 527,
      "ĠH": 528,
      "ĠW": 529,
      "Ġ`": 530,
      "Ġb": 531,
      "Ġg": 532,
      "Ġvolume": 533,
      "Ĩà¤": 534,
      "à¤¨": 535,
      "à¤®": 536,
      "à¤¸": 537,
      "à¤Ĥ": 538,
      "à¤ķ": 539,
      "erred": 540,
      "ould": 541,
      "Ġset": 542,
      "ults": 543,
      "Ġà¤¹": 544,
      "Ġà¤Ĩà¤": 545,
      "Ġch": 546,
      "Ġco": 547,
      "time": 548,
      "tion": 549,
      "Ġfor": 550,
      "Ġrepo": 551,
      "navi": 552,
      "ttps": 553,
      "mple": 554,
      "Ġli": 555,
      "Ġlang": 556,
      "Ġwor": 557,
      "Ġdo": 558,
      "member": 559,
      "Ġstr": 560,
      "Ġstatus": 561,
      "results": 562,
      "Ġteal": 563,
      "ask": 564,
      "Ġpreferred": 565,
      "Tool": 566,
      "board": 567,
      "eren": 568,
      "navigate": 569,
      "Ġlanguage": 570,
      "')": 571,
      "->": 572,
      ".\"}": 573,
      "60": 574,
      "ad": 575,
      "ample": 576,
      "fi": 577,
      "health": 578,
      "https": 579,
      "igh": 580,
      "ly": 581,
      "lan": 582,
      "max": 583,
      "ow": 584,
      "pre": 585,
      "pref": 586,
      "rou": 587,
      "ror": 588,
      "tori": 589,
      "user": 590,
      "umm": 591,
      "ver": 592,
      "Ġ0": 593,
      "ĠC": 594,
      "ĠR": 595,
      "Ġme": 596,
      "Ġbrowser": 597,
      "Ġmemory": 598,
      "Ġ**": 599,
      "ĠTool": 600,
      "Ġ->": 601,
      "Ġ60": 602,
      "tep": 603,
      "à¤¹": 604,
      "error": 605,
      "Ġsave": 606,
      "orm": 607,
      "ark": 608,
      "à¥Ĥ": 609,
      "Ġhealth": 610,
      "Ġhigh": 611,
      "Ġà¤¸": 612,
      "Ġrelease": 613,
      "sitori": 614,
      "Ġ30": 615,
      "Ġwith": 616,
      "odul": 617,
      "shboard": 618,
      "example": 619,
      "pic": 620,
      "Ġun": 621,
      "day": 622,
      "dashboard": 623,
      "ithub": 624,
      "able": 625,
      "internal": 626,
      "Ġexecute": 627,
      "ize": 628,
      "Ġrepositori": 629,
      "erence": 630,
      "preter": 631,
      "preference": 632,
      "ummar": 633,
      "Ġrepositories": 634,
      "02": 635,
      "50": 636,
      "AM": 637,
      "Favorite": 638,
      "Step": 639,
      "ast": 640,
      "and": 641,
      "api": 642,
      "di": 643,
      "est": 644,
      "end": 645,
      "eatu": 646,
      "form": 647,
      "grou": 648,
      "is": 649,
      "jec": 650,
      "ks": 651,
      "kgrou": 652,
      "ll": 653,
      "lo": 654,
      "md": 655,
      "mit": 656,
      "modul": 657,
      "ote": 658,
      "plan": 659,
      "use": 660,
      "xt": 661,
      "yn": 662,
      "Ġ1": 663,
      "ĠG": 664,
      "ĠI": 665,
      "ĠM": 666,
      "Ġbac": 667,
      "Ġtime": 668,
      "Ġend": 669,
      "à¤¿": 670,
      "à¤ģ": 671,
      "ree": 672,
      "remember": 673,
      "int": 674,
      "Ġsummar": 675,
      "ings": 676,
      "topic": 677,
      "one": 678,
      "ong": 679,
      "ach": 680,
      "à¥¤": 681,
      "Ġpe": 682,
      "Ġà¤¤": 683,
      "Ġà¤²": 684,
      "Ġfact": 685,
      "Ġfeatu": 686,
      "Ġprojec": 687,
      "ĠNone": 688,
      "stamp": 689,
      "Ġinter": 690,
      "term": 691,
      "Ġlong": 692,
      "eck": 693,
      "gent": 694,
      "Ġdi": 695,
      "ode": 696,
      "Ġkar": 697,
      "Ġup": 698,
      "**:": 699,
      "point": 700,
      "url": 701,
      "Ġ202": 702,
      "Ġtask": 703,
      "à¥Īà¤Ĥ": 704,
      "Ġrequeste": 705,
      "Ġgithub": 706,
      "à¤¨à¤®": 707,
      "Ġà¤Ĩà¤ª": 708,
      "Ġcomp": 709,
      "Ġlike": 710,
      "à¥Ĥà¤ģ": 711,
      "preters": 712,
      "kground": 713,
      "otes": 714,
      "Ġbackground": 715,
      "Ġtimestamp": 716,
      "Ġendpoint": 717,
      "Ġfeatures": 718,
      "Ġ2026": 719,
      "Ġrequested": 720,
      "à¤¨à¤®à¤¸": 721,
      "%)": 722,
      ".\"}}": 723,
      "00": 724,
      "750": 725,
      "88": 726,
      "AP": 727,
      "De": 728,
      "EM": 729,
      "EP": 730,
      "Go": 731,
      "Hub": 732,
      "PEP": 733,
      "VE": 734,
      "Volume": 735,
      "`.": 736,
      "aj": 737,
      "ap": 738,
      "ath": 739,
      "aste": 740,
      "ants": 741,
      "cume": 742,
      "de": 743,
      "dle": 744,
      "dow": 745,
      "earch": 746,
      "fy": 747,
      "favorite": 748,
      "gra": 749,
      "hi": 750,
      "hat": 751,
      "hen": 752,
      "ite": 753,
      "ile": 754,
      "ired": 755,
      "ifi": 756,
      "ify": 757,
      "ka": 758,
      "lu": 759,
      "late": 760,
      "ng": 761,
      "ning": 762,
      "og": 763,
      "om": 764,
      "os": 765,
      "ost": 766,
      "por": 767,
      "pon": 768,
      "pro": 769,
      "path": 770,
      "png": 771,
      "ri": 772,
      "rch": 773,
      "rday": 774,
      "sa": 775,
      "save": 776,
      "sage": 777,
      "ting": 778,
      "task": 779,
      "ution": 780,
      "ya": 781,
      "Ġ5": 782,
      "ĠP": 783,
      "Ġor": 784,
      "Ġro": 785,
      "Ġtrending": 786,
      "Ġbackend": 787,
      "Ġnavigate": 788,
      "Ġver": 789,
      "Ġ750": 790,
      "text": 791,
      "à¤ı": 792,
      "rent": 793,
      "reate": 794,
      "rect": 795,
      "read": 796,
      "reach": 797,
      "rehen": 798,
      "inue": 799,
      "thes": 800,
      "thread": 801,
      "Ġac": 802,
      "Ġat": 803,
      "Ġall": 804,
      "Ġarch": 805,
      "Ġser": 806,
      "orning": 807,
      "ntation": 808,
      "ntinue": 809,
      "rove": 810,
      "ulti": 811,
      "ses": 812,
      "Ġà¤ª": 813,
      "Ġà¤®": 814,
      "Ġcon": 815,
      "Ġcur": 816,
      "Ġclo": 817,
      "tive": 818,
      "Ġtoday": 819,
      "Ġfai": 820,
      "Ġfil": 821,
      "Ġfree": 822,
      "Ġfaste": 823,
      "Ġres": 824,
      "Ġresearch": 825,
      "Ġremember": 826,
      "Ġproces": 827,
      "Ġprogra": 828,
      "Ġimp": 829,
      "Ġidle": 830,
      "elog": 831,
      "sion": 832,
      "Ġasks": 833,
      "action": 834,
      "atest": 835,
      "mplate": 836,
      "ance": 837,
      "Ġlatest": 838,
      "Ġwould": 839,
      "Ġwants": 840,
      "Ġyeste": 841,
      "ked": 842,
      "key": 843,
      "Ġdue": 844,
      "oding": 845,
      "ĠSystem": 846,
      "ĠSave": 847,
      "ĠSyn": 848,
      "Ġmy": 849,
      "Ġmode": 850,
      "Ġmorning": 851,
      "Ġka": 852,
      "ubinter": 853,
      "Ġne": 854,
      "Ġnotes": 855,
      "à¥ĩà¤Ĥ": 856,
      "abs": 857,
      "limit": 858,
      "mming": 859,
      "à¤¯à¤¤": 860,
      "angelog": 861,
      "Ġtabs": 862,
      "Ġrequest": 863,
      "Ġexecution": 864,
      "ctu": 865,
      "itHub": 866,
      "ĠFast": 867,
      "ĠWould": 868,
      "Ġbu": 869,
      "Ġà¤Ĩà¤ľ": 870,
      "Ġcheck": 871,
      "Ġchangelog": 872,
      "Ġworked": 873,
      "Ġdocume": 874,
      "ĠRe": 875,
      "ĠRAM": 876,
      "Ġsaved": 877,
      "arkdow": 878,
      "Ġà¤¸à¤¹": 879,
      "Ġunuse": 880,
      "Ġunreach": 881,
      "modules": 882,
      "ĠGitHub": 883,
      "Ġsummary": 884,
      "Ġproject": 885,
      "Ġdirect": 886,
      "Ġà¤Ĩà¤ªà¤ķ": 887,
      "Ġcomprehen": 888,
      "à¥Ĥà¤ģà¥¤": 889,
      "API": 890,
      "Dele": 891,
      "Good": 892,
      "apka": 893,
      "itectu": 894,
      "ponse": 895,
      "Ġroot": 896,
      "thesize": 897,
      "threaded": 898,
      "Ġarchitectu": 899,
      "ntinued": 900,
      "Ġcurrent": 901,
      "Ġfiles": 902,
      "Ġfaster": 903,
      "Ġprocesses": 904,
      "Ġprogramming": 905,
      "Ġimprove": 906,
      "Ġyesterday": 907,
      "ĠSynthesize": 908,
      "ubinterpreters": 909,
      "ĠFastAPI": 910,
      "arkdown": 911,
      "Ġunused": 912,
      "Ġunreachable": 913,
      "Ġdirectory": 914,
      "Ġcomprehension": 915,
      "%\"}": 916,
      "'m": 917,
      "'s": 918,
      "'ve": 919,
      "'\"}": 920,
      "'ll": 921,
      "),": 922,
      ").": 923,
      "):": 924,
      ")**:": 925,
      "100": 926,
      "200": 927,
      "75": 928,
      "AG": 929,
      "Ad": 930,
      "Au": 931,
      "Aapka": 932,
      "Browser": 933,
      "Base": 934,
      "Co": 935,
      "Con": 936,
      "ER": 937,
      "ES": 938,
      "ET": 939,
      "En": 940,
      "EVE": 941,
      "Fou": 942,
      "Fact": 943,
      "GH": 944,
      "Got": 945,
      "HI": 946,
      "Ha": 947,
      "He": 948,
      "In": 949,
      "Le": 950,
      "LVE": 951,
      "Mer": 952,
      "Mes": 953,
      "Mute": 954,
      "Multi": 955,
      "NO": 956,
      "NT": 957,
      "Naira": 958,
      "Nav": 959,
      "NAM": 960,
      "OR": 961,
      "OS": 962,
      "Op": 963,
      "OLVE": 964,
      "Please": 965,
      "Qu": 966,
      "RL": 967,
      "Re": 968,
      "Res": 969,
      "RES": 970,
      "ST": 971,
      "SY": 972,
      "St": 973,
      "Set": 974,
      "Sab": 975,
      "SAG": 976,
      "Te": 977,
      "URL": 978,
      "USAG": 979,
      "Ver": 980,
      "We": 981,
      "What": 982,
      "])": 983,
      "`,": 984,
      "aa": 985,
      "ain": 986,
      "asta": 987,
      "anding": 988,
      "aad": 989,
      "ause": 990,
      "aya": 991,
      "bute": 992,
      "ck": 993,
      "cu": 994,
      "cation": 995,
      "cli": 996,
      "clu": 997,
      "com": 998,
      "cri": 999,
      "dj": 1000,
      "du": 1001,
      "der": 1002,
      "des": 1003,
      "date": 1004,
      "dation": 1005,
      "dark": 1006,
      "dings": 1007,
      "eb": 1008,
      "ef": 1009,
      "ff": 1010,
      "fasta": 1011,
      "ges": 1012,
      "gge": 1013,
      "gard": 1014,
      "github": 1015,
      "ha": 1016,
      "hel": 1017,
      "host": 1018,
      "hance": 1019,
      "ime": 1020,
      "ild": 1021,
      "igate": 1022,
      "idation": 1023,
      "kul": 1024,
      "kes": 1025,
      "lf": 1026,
      "lli": 1027,
      "mo": 1028,
      "mme": 1029,
      "mou": 1030,
      "mation": 1031,
      "miz": 1032,
      "ns": 1033,
      "ny": 1034,
      "ner": 1035,
      "naira": 1036,
      "nec": 1037,
      "not": 1038,
      "notes": 1039,
      "nom": 1040,
      "nclu": 1041,
      "ok": 1042,
      "oth": 1043,
      "oti": 1044,
      "oform": 1045,
      "ontinued": 1046,
      "ocu": 1047,
      "pe": 1048,
      "pp": 1049,
      "pol": 1050,
      "pac": 1051,
      "ple": 1052,
      "pel": 1053,
      "pec": 1054,
      "python": 1055,
      "ption": 1056,
      "phi": 1057,
      "ru": 1058,
      "ruc": 1059,
      "ris": 1060,
      "rings": 1061,
      "rmation": 1062,
      "sing": 1063,
      "ssa": 1064,
      "tu": 1065,
      "ty": 1066,
      "tro": 1067,
      "tur": 1068,
      "trings": 1069,
      "ust": 1070,
      "uch": 1071,
      "udi": 1072,
      "ugge": 1073,
      "wo": 1074,
      "wor": 1075,
      "ynt": 1076,
      "ªà¤¯": 1077,
      "¬à¤¹": 1078,
      "Ġ&": 1079,
      "Ġ/": 1080,
      "Ġ=": 1081,
      "Ġx": 1082,
      "Ġ|": 1083,
      "Ġou": 1084,
      "Ġra": 1085,
      "Ġge": 1086,
      "Ġval": 1087,
      "Ġvalue": 1088,
      "Ġoutput": 1089,
      "Ġrou": 1090,
      "Ġ50": 1091,
      "Ġ88": 1092,
      "Ġkey": 1093,
      "ĠDele": 1094,
      "ĠBrowser": 1095,
      "ĠEVE": 1096,
      "ĠLe": 1097,
      "ĠOS": 1098,
      "ĠQu": 1099,
      "ĠURL": 1100,
      "ĠVer": 1101,
      "ħà¤": 1102,
      "Ķà¤°": 1103,
      "ted": 1104,
      "teal": 1105,
      "temp": 1106,
      "teps": 1107,
      "telli": 1108,
      "à¤¶": 1109,
      "à¤Ĺ": 1110,
      "à¤Ľ": 1111,
      "à¤Ł": 1112,
      "à¤ªà¤¯": 1113,
      "reat": 1114,
      "reation": 1115,
      "ine": 1116,
      "indi": 1117,
      "indings": 1118,
      "Ġ\"[": 1119,
      "Ġan": 1120,
      "Ġatt": 1121,
      "Ġage": 1122,
      "Ġaur": 1123,
      "Ġagent": 1124,
      "Ġaaj": 1125,
      "Ġadj": 1126,
      "Ġapp": 1127,
      "Ġaudi": 1128,
      "erce": 1129,
      "erform": 1130,
      "ments": 1131,
      "mentation": 1132,
      "Ġsing": 1133,
      "Ġsuccess": 1134,
      "Ġscreenshot": 1135,
      "Ġstep": 1136,
      "Ġsearch": 1137,
      "Ġsubinterpreters": 1138,
      "Ġsaa": 1139,
      "Ġsmo": 1140,
      "Ġspec": 1141,
      "Ġsynt": 1142,
      "Ġsteps": 1143,
      "ingli": 1144,
      "atast": 1145,
      "olve": 1146,
      "olate": 1147,
      "tonom": 1148,
      "arting": 1149,
      "ntime": 1150,
      "rophi": 1151,
      "ult": 1152,
      "ulate": 1153,
      "step": 1154,
      "self": 1155,
      "Ġtha": 1156,
      "Ġthod": 1157,
      "Ġthis": 1158,
      "nda": 1159,
      "à¥ģ": 1160,
      "à¥ĥ": 1161,
      "à¥ī": 1162,
      "Ġho": 1163,
      "Ġhave": 1164,
      "Ġhttps": 1165,
      "Ġhost": 1166,
      "Ġhain": 1167,
      "Ġpc": 1168,
      "Ġplease": 1169,
      "Ġperce": 1170,
      "Ġà¤¨": 1171,
      "Ġà¤¬à¤¹": 1172,
      "Ġà¤ħà¤": 1173,
      "Ġà¤Ķà¤°": 1174,
      "Ġcan": 1175,
      "Ġcould": 1176,
      "Ġcode": 1177,
      "Ġcreate": 1178,
      "Ġcoding": 1179,
      "Ġcause": 1180,
      "Ġcreation": 1181,
      "Ġcatast": 1182,
      "timiz": 1183,
      "aisa": 1184,
      "fully": 1185,
      "vel": 1186,
      "Ġtop": 1187,
      "Ġtopic": 1188,
      "Ġfile": 1189,
      "Ġfocu": 1190,
      "Ġfindings": 1191,
      "ghts": 1192,
      "Ġreal": 1193,
      "Ġrecall": 1194,
      "Ġread": 1195,
      "Ġregard": 1196,
      "Ġretur": 1197,
      "led": 1198,
      "ĠAgent": 1199,
      "ĠAaj": 1200,
      "ĠAapka": 1201,
      "ĠAny": 1202,
      "Ġprocess": 1203,
      "Ġprofi": 1204,
      "Ġit": 1205,
      "Ġimple": 1206,
      "Ġimme": 1207,
      "ĠNati": 1208,
      "Ġok": 1209,
      "Ġoff": 1210,
      "tools": 1211,
      "Ġopen": 1212,
      "Ġoptimiz": 1213,
      "check": 1214,
      "ately": 1215,
      "mpt": 1216,
      "Ġinform": 1217,
      "Ġintro": 1218,
      "Ġintelli": 1219,
      "terpreter": 1220,
      "quired": 1221,
      "Ġthem": 1222,
      "Ġisoform": 1223,
      "Ġisolate": 1224,
      "Ġwe": 1225,
      "Ġwil": 1226,
      "Ġyaad": 1227,
      "Ġdet": 1228,
      "Ġdark": 1229,
      "Ġdest": 1230,
      "Ġdef": 1231,
      "odel": 1232,
      "à¤¾!": 1233,
      "Ġstable": 1234,
      "Ġstand": 1235,
      "ĠSummar": 1236,
      "ĠSearch": 1237,
      "ĠSubinterpreters": 1238,
      "ĠStrings": 1239,
      "ĠSugge": 1240,
      "Ġmute": 1241,
      "Ġmax": 1242,
      "Ġmodul": 1243,
      "Ġmarkdown": 1244,
      "Ġmodel": 1245,
      "à¤°à¤¹": 1246,
      "response": 1247,
      "erying": 1248,
      "pipel": 1249,
      "Ġkis": 1250,
      "Ġkya": 1251,
      "Ġkuch": 1252,
      "Ġkaisa": 1253,
      "Ġuser": 1254,
      "Ġusage": 1255,
      "ations": 1256,
      "ced": 1257,
      "etwor": 1258,
      "uctu": 1259,
      "Ġnot": 1260,
      "Ġnow": 1261,
      "Ġnoti": 1262,
      "Ġnetwor": 1263,
      "Ġtest": 1264,
      "Ġtext": 1265,
      "Ġtemplate": 1266,
      "à¥ĩ!": 1267,
      "à¥ĩ,": 1268,
      "à¥ĩ?": 1269,
      "Ġà¤ķà¤°": 1270,
      "likes": 1271,
      "lights": 1272,
      "mmand": 1273,
      "vices": 1274,
      "vider": 1275,
      "à¤¯à¤°": 1276,
      "asyn": 1277,
      "eded": 1278,
      "Ġtwo": 1279,
      "Ġone": 1280,
      "Ġpreferen": 1281,
      "Ġrequired": 1282,
      "ilt": 1283,
      "ilkul": 1284,
      "ĠForm": 1285,
      "ĠFree": 1286,
      "ĠFile": 1287,
      "ĠHow": 1288,
      "ĠHand": 1289,
      "ĠHanding": 1290,
      "ĠHindi": 1291,
      "ĠHingli": 1292,
      "ĠWhi": 1293,
      "ĠWhat": 1294,
      "ĠWeb": 1295,
      "Ġbe": 1296,
      "Ġbut": 1297,
      "Ġbilkul": 1298,
      "Ġgaya": 1299,
      "Ġgreat": 1300,
      "à¤¨à¤¶": 1301,
      "Ġà¤¹à¤®": 1302,
      "Ġchal": 1303,
      "Ġcover": 1304,
      "Ġcontinued": 1305,
      "Ġrepos": 1306,
      "Ġlist": 1307,
      "Ġlimit": 1308,
      "Ġwork": 1309,
      "Ġworld": 1310,
      "Ġworks": 1311,
      "Ġdoing": 1312,
      "Ġstring": 1313,
      "Ġstrings": 1314,
      "Ġstructu": 1315,
      "firmation": 1316,
      "ĠCPython": 1317,
      "ĠCreate": 1318,
      "ĠCoding": 1319,
      "ĠContinued": 1320,
      "Ġmessa": 1321,
      "ĠToolRes": 1322,
      "Ġhighlights": 1323,
      "Ġexecuted": 1324,
      "diately": 1325,
      "module": 1326,
      "ĠGET": 1327,
      "ĠInclu": 1328,
      "ĠMEM": 1329,
      "ĠMulti": 1330,
      "ĠMarkdown": 1331,
      "Ġsummarize": 1332,
      "ached": 1333,
      "Ġà¤¤à¤°à¤¹": 1334,
      "Ġprojects": 1335,
      "Ġinternal": 1336,
      "Ġinterpreters": 1337,
      "Ġinterpol": 1338,
      "Ġdict": 1339,
      "Ġkarna": 1340,
      "Ġuptime": 1341,
      "Ġupdate": 1342,
      "à¥Īà¤Ĥ?": 1343,
      "Ġcompos": 1344,
      "%).": 1345,
      "def": 1346,
      "ified": 1347,
      "ification": 1348,
      "lure": 1349,
      "port": 1350,
      "ports": 1351,
      "prompt": 1352,
      "provider": 1353,
      "ribute": 1354,
      "ĠPlan": 1355,
      "ĠPerform": 1356,
      "Ġverify": 1357,
      "Ġverified": 1358,
      "Ġaction": 1359,
      "Ġactive": 1360,
      "Ġattemp": 1361,
      "Ġserver": 1362,
      "Ġservices": 1363,
      "Ġà¤ªà¤°": 1364,
      "Ġcontext": 1365,
      "Ġconnec": 1366,
      "Ġclose": 1367,
      "Ġclosing": 1368,
      "Ġfailed": 1369,
      "Ġfailure": 1370,
      "Ġresponse": 1371,
      "Ġresolve": 1372,
      "Ġremembering": 1373,
      "keyboard": 1374,
      "Ġkam": 1375,
      "Ġnew": 1376,
      "Ġneeded": 1377,
      "à¥ĩà¤Ĥà¥¤": 1378,
      "Ġrequests": 1379,
      "Ġbuild": 1380,
      "Ġbuilt": 1381,
      "Ġdocument": 1382,
      "Ġdocumentation": 1383,
      "ĠRequired": 1384,
      "ĠReport": 1385,
      "Delete": 1386,
      "Ġarchitecture": 1387,
      "Ġarchitectures": 1388,
      "Ġcurrently": 1389,
      "Ġimproved": 1390,
      "Ġimprovements": 1391,
      "Add": 1392,
      "Autonom": 1393,
      "Based": 1394,
      "Command": 1395,
      "Confirmation": 1396,
      "ERR": 1397,
      "Enhance": 1398,
      "Found": 1399,
      "HIGH": 1400,
      "Haan": 1401,
      "Hey": 1402,
      "Interpreter": 1403,
      "Mera": 1404,
      "Message": 1405,
      "NOT": 1406,
      "Navigate": 1407,
      "NAME": 1408,
      "ORY": 1409,
      "Open": 1410,
      "OLVED": 1411,
      "Research": 1412,
      "RESOLVED": 1413,
      "STEM": 1414,
      "SYSTEM": 1415,
      "Starting": 1416,
      "Template": 1417,
      "USAGE": 1418,
      "click": 1419,
      "cription": 1420,
      "duces": 1421,
      "description": 1422,
      "fastapi": 1423,
      "hello": 1424,
      "mouse": 1425,
      "nerate": 1426,
      "othly": 1427,
      "pace": 1428,
      "runtime": 1429,
      "ructive": 1430,
      "risk": 1431,
      "type": 1432,
      "Ġour": 1433,
      "Ġraha": 1434,
      "Ġgenerate": 1435,
      "Ġvalidation": 1436,
      "Ġroute": 1437,
      "ĠDeleting": 1438,
      "ĠEVENT": 1439,
      "ĠLevel": 1440,
      "ĠQuerying": 1441,
      "ĠVerify": 1442,
      "Ġattribute": 1443,
      "Ġagenda": 1444,
      "Ġadjust": 1445,
      "Ġaudio": 1446,
      "Ġsingle": 1447,
      "Ġsuccessfully": 1448,
      "Ġsaare": 1449,
      "Ġsmoothly": 1450,
      "Ġspecification": 1451,
      "Ġsyntax": 1452,
      "rophic": 1453,
      "Ġthoda": 1454,
      "Ġpercent": 1455,
      "Ġà¤ħà¤ļ": 1456,
      "Ġcannot": 1457,
      "Ġcatastrophic": 1458,
      "Ġfocus": 1459,
      "Ġready": 1460,
      "Ġregarding": 1461,
      "Ġreturns": 1462,
      "Ġprofile": 1463,
      "Ġimplementation": 1464,
      "Ġimmediately": 1465,
      "ĠNative": 1466,
      "Ġoptimizations": 1467,
      "Ġinformation": 1468,
      "Ġintroduces": 1469,
      "Ġintelligent": 1470,
      "Ġisoformat": 1471,
      "Ġisolated": 1472,
      "Ġwill": 1473,
      "Ġdetached": 1474,
      "Ġdestructive": 1475,
      "Ġstandard": 1476,
      "ĠSummarize": 1477,
      "ĠSuggest": 1478,
      "Ġmuted": 1479,
      "Ġmodular": 1480,
      "pipeline": 1481,
      "Ġnoticed": 1482,
      "Ġnetwork": 1483,
      "async": 1484,
      "Ġpreferences": 1485,
      "ĠFormulate": 1486,
      "ĠHinglish": 1487,
      "ĠWhich": 1488,
      "Ġcoverage": 1489,
      "Ġworkspace": 1490,
      "Ġstructured": 1491,
      "Ġmessages": 1492,
      "ĠToolResult": 1493,
      "ĠInclude": 1494,
      "ĠMEMORY": 1495,
      "ĠMultiple": 1496,
      "Ġinterpolation": 1497,
      "Ġupdates": 1498,
      "Ġcomposable": 1499,
      "ĠPerformance": 1500,
      "Ġattempted": 1501,
      "Ġconnection": 1502,
      "Ġresolved": 1503,
      "Autonomy": 1504,
      "Enhanced": 1505,
      "Ġattributes": 1506,
      "<|intent|>": 1507,
      "<|final|>": 1508
    },
    "merges": [
      [
        "t",
        "e"
      ],
      [
        "à",
        "¤"
      ],
      [
        "r",
        "e"
      ],
      [
        "i",
        "n"
      ],
      [
        "Ġ",
        "\""
      ],
      [
        "t",
        "h"
      ],
      [
        "Ġ",
        "a"
      ],
      [
        "\"",
        ":"
      ],
      [
        "e",
        "r"
      ],
      [
        "m",
        "e"
      ],
      [
        "o",
        "u"
      ],
      [
        "Ġ",
        "s"
      ],
      [
        "o",
        "r"
      ],
      [
        "in",
        "g"
      ],
      [
        "a",
        "t"
      ],
      [
        "o",
        "l"
      ],
      [
        "t",
        "o"
      ],
      [
        "a",
        "r"
      ],
      [
        "n",
        "t"
      ],
      [
        "a",
        "l"
      ],
      [
        "o",
        "n"
      ],
      [
        "r",
        "o"
      ],
      [
        "u",
        "l"
      ],
      [
        "s",
        "te"
      ],
      [
        "s",
        "e"
      ],
      [
        "{",
        "\""
      ],
      [
        "Ġ",
        "th"
      ],
      [
        "a",
        "c"
      ],
      [
        "s",
        "t"
      ],
      [
        "n",
        "d"
      ],
      [
        "à",
        "¥"
      ],
      [
        "\"",
        ","
      ],
      [
        "y",
        "ste"
      ],
      [
        "yste",
        "m"
      ],
      [
        "Ġ",
        "h"
      ],
      [
        "Ġ",
        "p"
      ],
      [
        "Ġ",
        "à¤"
      ],
      [
        "u",
        "me"
      ],
      [
        "Ġ",
        "c"
      ],
      [
        "t",
        "i"
      ],
      [
        "a",
        "i"
      ],
      [
        "f",
        "ul"
      ],
      [
        "v",
        "e"
      ],
      [
        "<",
        "|"
      ],
      [
        "g",
        "h"
      ],
      [
        "|",
        ">"
      ],
      [
        "Ġ",
        "to"
      ],
      [
        "s",
        "er"
      ],
      [
        "Ġ",
        "f"
      ],
      [
        "Ġs",
        "ystem"
      ],
      [
        "e",
        "s"
      ],
      [
        "gh",
        "t"
      ],
      [
        "Ġ",
        "re"
      ],
      [
        "ou",
        "ght"
      ],
      [
        "l",
        "e"
      ],
      [
        "Ġ",
        "A"
      ],
      [
        "Ġp",
        "ro"
      ],
      [
        "n",
        "a"
      ],
      [
        "r",
        "a"
      ],
      [
        "Ġ",
        "i"
      ],
      [
        "e",
        "l"
      ],
      [
        "s",
        "i"
      ],
      [
        "Ġ",
        "N"
      ],
      [
        "Ġ",
        "o"
      ],
      [
        "t",
        "t"
      ],
      [
        "nt",
        "s"
      ],
      [
        "ĠA",
        "I"
      ],
      [
        "to",
        "ol"
      ],
      [
        "st",
        "a"
      ],
      [
        "ai",
        "ra"
      ],
      [
        "Ġo",
        "p"
      ],
      [
        "c",
        "h"
      ],
      [
        "c",
        "al"
      ],
      [
        "cal",
        "l"
      ],
      [
        "g",
        "ume"
      ],
      [
        "}",
        "}"
      ],
      [
        "Ġ",
        "{\""
      ],
      [
        "Ġa",
        "s"
      ],
      [
        "Ġa",
        "re"
      ],
      [
        "er",
        "at"
      ],
      [
        "ar",
        "gume"
      ],
      [
        "ac",
        "ti"
      ],
      [
        "na",
        "me"
      ],
      [
        "ĠN",
        "aira"
      ],
      [
        "Ġop",
        "erat"
      ],
      [
        "argume",
        "nts"
      ],
      [
        "Ġoperat",
        "ing"
      ],
      [
        "a",
        "te"
      ],
      [
        "m",
        "p"
      ],
      [
        "Ġ",
        "3"
      ],
      [
        "Ġ",
        "in"
      ],
      [
        "te",
        "r"
      ],
      [
        "Ġh",
        "el"
      ],
      [
        "Ġhel",
        "p"
      ],
      [
        "Y",
        "ou"
      ],
      [
        "q",
        "u"
      ],
      [
        "Ġth",
        "e"
      ],
      [
        "Ġth",
        "ought"
      ],
      [
        "Ġpro",
        "acti"
      ],
      [
        "Ġi",
        "s"
      ],
      [
        "si",
        "sta"
      ],
      [
        "Ġas",
        "sista"
      ],
      [
        "Ġhelp",
        "ful"
      ],
      [
        "Ġthought",
        "ful"
      ],
      [
        "Ġproacti",
        "ve"
      ],
      [
        "Ġassista",
        "nt"
      ],
      [
        "a",
        "n"
      ],
      [
        "w",
        "ser"
      ],
      [
        "Ġ",
        "l"
      ],
      [
        "Ġ",
        "w"
      ],
      [
        "Ġ",
        "y"
      ],
      [
        "or",
        "i"
      ],
      [
        "at",
        "u"
      ],
      [
        "ol",
        "ume"
      ],
      [
        "ro",
        "wser"
      ],
      [
        "se",
        "tt"
      ],
      [
        "sett",
        "ing"
      ],
      [
        "b",
        "rowser"
      ],
      [
        "e",
        "c"
      ],
      [
        "g",
        "e"
      ],
      [
        "k",
        "e"
      ],
      [
        "Ġ",
        "d"
      ],
      [
        "me",
        "m"
      ],
      [
        "ar",
        "ch"
      ],
      [
        "=",
        "'"
      ],
      [
        "o",
        "d"
      ],
      [
        "v",
        "olume"
      ],
      [
        "y",
        "th"
      ],
      [
        "Ġa",
        "nd"
      ],
      [
        "yth",
        "on"
      ],
      [
        "P",
        "ython"
      ],
      [
        "a",
        "v"
      ],
      [
        "c",
        "es"
      ],
      [
        "à¤",
        "¾"
      ],
      [
        "Ġs",
        "t"
      ],
      [
        "se",
        "arch"
      ],
      [
        "atu",
        "s"
      ],
      [
        "o",
        "t"
      ],
      [
        "s",
        "h"
      ],
      [
        "u",
        "e"
      ],
      [
        "Ġ",
        "S"
      ],
      [
        "Ġ",
        "m"
      ],
      [
        "à¤",
        "°"
      ],
      [
        "or",
        "y"
      ],
      [
        "ol",
        "or"
      ],
      [
        "Ġc",
        "olor"
      ],
      [
        "Ġy",
        "ou"
      ],
      [
        "ori",
        "te"
      ],
      [
        "av",
        "orite"
      ],
      [
        "b",
        "ac"
      ],
      [
        "e",
        "n"
      ],
      [
        "e",
        "x"
      ],
      [
        "re",
        "f"
      ],
      [
        "re",
        "s"
      ],
      [
        "th",
        "ought"
      ],
      [
        "er",
        "y"
      ],
      [
        "at",
        "i"
      ],
      [
        "a",
        "ve"
      ],
      [
        "p",
        "c"
      ],
      [
        "p",
        "i"
      ],
      [
        "Ġ",
        "k"
      ],
      [
        "Ġ",
        "u"
      ],
      [
        "Ġ",
        "Python"
      ],
      [
        "ac",
        "t"
      ],
      [
        "nd",
        "ing"
      ],
      [
        "à¥",
        "į"
      ],
      [
        "qu",
        "ery"
      ],
      [
        "mem",
        "ory"
      ],
      [
        "ati",
        "on"
      ],
      [
        "*",
        "*"
      ],
      [
        "U",
        "ser"
      ],
      [
        "a",
        "ge"
      ],
      [
        "c",
        "e"
      ],
      [
        "d",
        "a"
      ],
      [
        "e",
        "t"
      ],
      [
        "e",
        "al"
      ],
      [
        "i",
        "th"
      ],
      [
        "p",
        "o"
      ],
      [
        "s",
        "ystem"
      ],
      [
        "t",
        "re"
      ],
      [
        "u",
        "b"
      ],
      [
        "u",
        "c"
      ],
      [
        "v",
        "al"
      ],
      [
        "Ġ",
        "n"
      ],
      [
        "Ġ",
        "te"
      ],
      [
        "re",
        "d"
      ],
      [
        "à¥",
        "ĩ"
      ],
      [
        "Ġà¤",
        "ķ"
      ],
      [
        "setting",
        "s"
      ],
      [
        "eal",
        "th"
      ],
      [
        "tre",
        "nding"
      ],
      [
        "\"",
        "}"
      ],
      [
        "'",
        ","
      ],
      [
        "a",
        "b"
      ],
      [
        "a",
        "se"
      ],
      [
        "l",
        "d"
      ],
      [
        "l",
        "i"
      ],
      [
        "m",
        "m"
      ],
      [
        "p",
        "y"
      ],
      [
        "t",
        "s"
      ],
      [
        "u",
        "r"
      ],
      [
        "u",
        "t"
      ],
      [
        "u",
        "te"
      ],
      [
        "v",
        "i"
      ],
      [
        "à¤",
        "¯"
      ],
      [
        "ar",
        "d"
      ],
      [
        "Ġth",
        "at"
      ],
      [
        "st",
        "atus"
      ],
      [
        "à¥",
        "Ģ"
      ],
      [
        "Ġh",
        "ai"
      ],
      [
        "an",
        "g"
      ],
      [
        "ke",
        "nd"
      ],
      [
        "ces",
        "s"
      ],
      [
        "bac",
        "kend"
      ],
      [
        "val",
        "ue"
      ],
      [
        "\"",
        "}}"
      ],
      [
        "1",
        "4"
      ],
      [
        "a",
        "s"
      ],
      [
        "a",
        "x"
      ],
      [
        "c",
        "re"
      ],
      [
        "e",
        "d"
      ],
      [
        "g",
        "ate"
      ],
      [
        "p",
        "s"
      ],
      [
        "p",
        "ut"
      ],
      [
        "t",
        "put"
      ],
      [
        "Ġ",
        "("
      ],
      [
        "Ġ",
        "2"
      ],
      [
        "Ġ",
        "t"
      ],
      [
        "Ġ",
        "on"
      ],
      [
        "Ġ",
        "ex"
      ],
      [
        "à¤",
        "¤"
      ],
      [
        "in",
        "ter"
      ],
      [
        "ou",
        "tput"
      ],
      [
        "à¥",
        "Ī"
      ],
      [
        "Ġp",
        "ref"
      ],
      [
        "Ġf",
        "avorite"
      ],
      [
        "Ġre",
        "qu"
      ],
      [
        "le",
        "ase"
      ],
      [
        "sh",
        "ot"
      ],
      [
        "Ġyou",
        "r"
      ],
      [
        "en",
        "shot"
      ],
      [
        "uc",
        "cess"
      ],
      [
        "cre",
        "enshot"
      ],
      [
        "Ġex",
        "ec"
      ],
      [
        "/",
        "/"
      ],
      [
        ":",
        "//"
      ],
      [
        "T",
        "o"
      ],
      [
        "b",
        "o"
      ],
      [
        "b",
        "er"
      ],
      [
        "c",
        "t"
      ],
      [
        "e",
        "re"
      ],
      [
        "e",
        "ste"
      ],
      [
        "f",
        "act"
      ],
      [
        "i",
        "l"
      ],
      [
        "i",
        "t"
      ],
      [
        "i",
        "z"
      ],
      [
        "n",
        "al"
      ],
      [
        "s",
        "uccess"
      ],
      [
        "s",
        "creenshot"
      ],
      [
        "u",
        "age"
      ],
      [
        "Ġ",
        "F"
      ],
      [
        "Ġ",
        "H"
      ],
      [
        "Ġ",
        "W"
      ],
      [
        "Ġ",
        "`"
      ],
      [
        "Ġ",
        "b"
      ],
      [
        "Ġ",
        "g"
      ],
      [
        "Ġ",
        "volume"
      ],
      [
        "Ĩ",
        "à¤"
      ],
      [
        "à¤",
        "¨"
      ],
      [
        "à¤",
        "®"
      ],
      [
        "à¤",
        "¸"
      ],
      [
        "à¤",
        "Ĥ"
      ],
      [
        "à¤",
        "ķ"
      ],
      [
        "er",
        "red"
      ],
      [
        "ou",
        "ld"
      ],
      [
        "Ġs",
        "et"
      ],
      [
        "ul",
        "ts"
      ],
      [
        "Ġà¤",
        "¹"
      ],
      [
        "Ġà¤",
        "Ĩà¤"
      ],
      [
        "Ġc",
        "h"
      ],
      [
        "Ġc",
        "o"
      ],
      [
        "ti",
        "me"
      ],
      [
        "ti",
        "on"
      ],
      [
        "Ġf",
        "or"
      ],
      [
        "Ġre",
        "po"
      ],
      [
        "na",
        "vi"
      ],
      [
        "tt",
        "ps"
      ],
      [
        "mp",
        "le"
      ],
      [
        "Ġl",
        "i"
      ],
      [
        "Ġl",
        "ang"
      ],
      [
        "Ġw",
        "or"
      ],
      [
        "Ġd",
        "o"
      ],
      [
        "mem",
        "ber"
      ],
      [
        "Ġst",
        "r"
      ],
      [
        "Ġst",
        "atus"
      ],
      [
        "res",
        "ults"
      ],
      [
        "Ġte",
        "al"
      ],
      [
        "as",
        "k"
      ],
      [
        "Ġpref",
        "erred"
      ],
      [
        "To",
        "ol"
      ],
      [
        "bo",
        "ard"
      ],
      [
        "ere",
        "n"
      ],
      [
        "navi",
        "gate"
      ],
      [
        "Ġlang",
        "uage"
      ],
      [
        "'",
        ")"
      ],
      [
        "-",
        ">"
      ],
      [
        ".",
        "\"}"
      ],
      [
        "6",
        "0"
      ],
      [
        "a",
        "d"
      ],
      [
        "a",
        "mple"
      ],
      [
        "f",
        "i"
      ],
      [
        "h",
        "ealth"
      ],
      [
        "h",
        "ttps"
      ],
      [
        "i",
        "gh"
      ],
      [
        "l",
        "y"
      ],
      [
        "l",
        "an"
      ],
      [
        "m",
        "ax"
      ],
      [
        "o",
        "w"
      ],
      [
        "p",
        "re"
      ],
      [
        "p",
        "ref"
      ],
      [
        "r",
        "ou"
      ],
      [
        "r",
        "or"
      ],
      [
        "t",
        "ori"
      ],
      [
        "u",
        "ser"
      ],
      [
        "u",
        "mm"
      ],
      [
        "v",
        "er"
      ],
      [
        "Ġ",
        "0"
      ],
      [
        "Ġ",
        "C"
      ],
      [
        "Ġ",
        "R"
      ],
      [
        "Ġ",
        "me"
      ],
      [
        "Ġ",
        "browser"
      ],
      [
        "Ġ",
        "memory"
      ],
      [
        "Ġ",
        "**"
      ],
      [
        "Ġ",
        "Tool"
      ],
      [
        "Ġ",
        "->"
      ],
      [
        "Ġ",
        "60"
      ],
      [
        "te",
        "p"
      ],
      [
        "à¤",
        "¹"
      ],
      [
        "er",
        "ror"
      ],
      [
        "Ġs",
        "ave"
      ],
      [
        "or",
        "m"
      ],
      [
        "ar",
        "k"
      ],
      [
        "à¥",
        "Ĥ"
      ],
      [
        "Ġh",
        "ealth"
      ],
      [
        "Ġh",
        "igh"
      ],
      [
        "Ġà¤",
        "¸"
      ],
      [
        "Ġre",
        "lease"
      ],
      [
        "si",
        "tori"
      ],
      [
        "Ġ3",
        "0"
      ],
      [
        "Ġw",
        "ith"
      ],
      [
        "od",
        "ul"
      ],
      [
        "sh",
        "board"
      ],
      [
        "ex",
        "ample"
      ],
      [
        "pi",
        "c"
      ],
      [
        "Ġu",
        "n"
      ],
      [
        "da",
        "y"
      ],
      [
        "da",
        "shboard"
      ],
      [
        "ith",
        "ub"
      ],
      [
        "ab",
        "le"
      ],
      [
        "inter",
        "nal"
      ],
      [
        "Ġexec",
        "ute"
      ],
      [
        "iz",
        "e"
      ],
      [
        "Ġrepo",
        "sitori"
      ],
      [
        "eren",
        "ce"
      ],
      [
        "pre",
        "ter"
      ],
      [
        "pref",
        "erence"
      ],
      [
        "umm",
        "ar"
      ],
      [
        "Ġrepositori",
        "es"
      ],
      [
        "0",
        "2"
      ],
      [
        "5",
        "0"
      ],
      [
        "A",
        "M"
      ],
      [
        "F",
        "avorite"
      ],
      [
        "S",
        "tep"
      ],
      [
        "a",
        "st"
      ],
      [
        "a",
        "nd"
      ],
      [
        "a",
        "pi"
      ],
      [
        "d",
        "i"
      ],
      [
        "e",
        "st"
      ],
      [
        "e",
        "nd"
      ],
      [
        "e",
        "atu"
      ],
      [
        "f",
        "orm"
      ],
      [
        "g",
        "rou"
      ],
      [
        "i",
        "s"
      ],
      [
        "j",
        "ec"
      ],
      [
        "k",
        "s"
      ],
      [
        "k",
        "grou"
      ],
      [
        "l",
        "l"
      ],
      [
        "l",
        "o"
      ],
      [
        "m",
        "d"
      ],
      [
        "m",
        "it"
      ],
      [
        "m",
        "odul"
      ],
      [
        "o",
        "te"
      ],
      [
        "p",
        "lan"
      ],
      [
        "u",
        "se"
      ],
      [
        "x",
        "t"
      ],
      [
        "y",
        "n"
      ],
      [
        "Ġ",
        "1"
      ],
      [
        "Ġ",
        "G"
      ],
      [
        "Ġ",
        "I"
      ],
      [
        "Ġ",
        "M"
      ],
      [
        "Ġ",
        "bac"
      ],
      [
        "Ġ",
        "time"
      ],
      [
        "Ġ",
        "end"
      ],
      [
        "à¤",
        "¿"
      ],
      [
        "à¤",
        "ģ"
      ],
      [
        "re",
        "e"
      ],
      [
        "re",
        "member"
      ],
      [
        "in",
        "t"
      ],
      [
        "Ġs",
        "ummar"
      ],
      [
        "ing",
        "s"
      ],
      [
        "to",
        "pic"
      ],
      [
        "on",
        "e"
      ],
      [
        "on",
        "g"
      ],
      [
        "ac",
        "h"
      ],
      [
        "à¥",
        "¤"
      ],
      [
        "Ġp",
        "e"
      ],
      [
        "Ġà¤",
        "¤"
      ],
      [
        "Ġà¤",
        "²"
      ],
      [
        "Ġf",
        "act"
      ],
      [
        "Ġf",
        "eatu"
      ],
      [
        "Ġpro",
        "jec"
      ],
      [
        "ĠN",
        "one"
      ],
      [
        "sta",
        "mp"
      ],
      [
        "Ġin",
        "ter"
      ],
      [
        "ter",
        "m"
      ],
      [
        "Ġl",
        "ong"
      ],
      [
        "ec",
        "k"
      ],
      [
        "ge",
        "nt"
      ],
      [
        "Ġd",
        "i"
      ],
      [
        "od",
        "e"
      ],
      [
        "Ġk",
        "ar"
      ],
      [
        "Ġu",
        "p"
      ],
      [
        "**",
        ":"
      ],
      [
        "po",
        "int"
      ],
      [
        "ur",
        "l"
      ],
      [
        "Ġ2",
        "02"
      ],
      [
        "Ġt",
        "ask"
      ],
      [
        "à¥Ī",
        "à¤Ĥ"
      ],
      [
        "Ġrequ",
        "este"
      ],
      [
        "Ġg",
        "ithub"
      ],
      [
        "à¤¨",
        "à¤®"
      ],
      [
        "Ġà¤Ĩà¤",
        "ª"
      ],
      [
        "Ġco",
        "mp"
      ],
      [
        "Ġli",
        "ke"
      ],
      [
        "à¥Ĥ",
        "à¤ģ"
      ],
      [
        "preter",
        "s"
      ],
      [
        "kgrou",
        "nd"
      ],
      [
        "ote",
        "s"
      ],
      [
        "Ġbac",
        "kground"
      ],
      [
        "Ġtime",
        "stamp"
      ],
      [
        "Ġend",
        "point"
      ],
      [
        "Ġfeatu",
        "res"
      ],
      [
        "Ġ202",
        "6"
      ],
      [
        "Ġrequeste",
        "d"
      ],
      [
        "à¤¨à¤®",
        "à¤¸"
      ],
      [
        "%",
        ")"
      ],
      [
        ".",
        "\"}}"
      ],
      [
        "0",
        "0"
      ],
      [
        "7",
        "50"
      ],
      [
        "8",
        "8"
      ],
      [
        "A",
        "P"
      ],
      [
        "D",
        "e"
      ],
      [
        "E",
        "M"
      ],
      [
        "E",
        "P"
      ],
      [
        "G",
        "o"
      ],
      [
        "H",
        "ub"
      ],
      [
        "P",
        "EP"
      ],
      [
        "V",
        "E"
      ],
      [
        "V",
        "olume"
      ],
      [
        "`",
        "."
      ],
      [
        "a",
        "j"
      ],
      [
        "a",
        "p"
      ],
      [
        "a",
        "th"
      ],
      [
        "a",
        "ste"
      ],
      [
        "a",
        "nts"
      ],
      [
        "c",
        "ume"
      ],
      [
        "d",
        "e"
      ],
      [
        "d",
        "le"
      ],
      [
        "d",
        "ow"
      ],
      [
        "e",
        "arch"
      ],
      [
        "f",
        "y"
      ],
      [
        "f",
        "avorite"
      ],
      [
        "g",
        "ra"
      ],
      [
        "h",
        "i"
      ],
      [
        "h",
        "at"
      ],
      [
        "h",
        "en"
      ],
      [
        "i",
        "te"
      ],
      [
        "i",
        "le"
      ],
      [
        "i",
        "red"
      ],
      [
        "i",
        "fi"
      ],
      [
        "i",
        "fy"
      ],
      [
        "k",
        "a"
      ],
      [
        "l",
        "u"
      ],
      [
        "l",
        "ate"
      ],
      [
        "n",
        "g"
      ],
      [
        "n",
        "ing"
      ],
      [
        "o",
        "g"
      ],
      [
        "o",
        "m"
      ],
      [
        "o",
        "s"
      ],
      [
        "o",
        "st"
      ],
      [
        "p",
        "or"
      ],
      [
        "p",
        "on"
      ],
      [
        "p",
        "ro"
      ],
      [
        "p",
        "ath"
      ],
      [
        "p",
        "ng"
      ],
      [
        "r",
        "i"
      ],
      [
        "r",
        "ch"
      ],
      [
        "r",
        "day"
      ],
      [
        "s",
        "a"
      ],
      [
        "s",
        "ave"
      ],
      [
        "s",
        "age"
      ],
      [
        "t",
        "ing"
      ],
      [
        "t",
        "ask"
      ],
      [
        "u",
        "tion"
      ],
      [
        "y",
        "a"
      ],
      [
        "Ġ",
        "5"
      ],
      [
        "Ġ",
        "P"
      ],
      [
        "Ġ",
        "or"
      ],
      [
        "Ġ",
        "ro"
      ],
      [
        "Ġ",
        "trending"
      ],
      [
        "Ġ",
        "backend"
      ],
      [
        "Ġ",
        "navigate"
      ],
      [
        "Ġ",
        "ver"
      ],
      [
        "Ġ",
        "750"
      ],
      [
        "te",
        "xt"
      ],
      [
        "à¤",
        "ı"
      ],
      [
        "re",
        "nt"
      ],
      [
        "re",
        "ate"
      ],
      [
        "re",
        "ct"
      ],
      [
        "re",
        "ad"
      ],
      [
        "re",
        "ach"
      ],
      [
        "re",
        "hen"
      ],
      [
        "in",
        "ue"
      ],
      [
        "th",
        "es"
      ],
      [
        "th",
        "read"
      ],
      [
        "Ġa",
        "c"
      ],
      [
        "Ġa",
        "t"
      ],
      [
        "Ġa",
        "ll"
      ],
      [
        "Ġa",
        "rch"
      ],
      [
        "Ġs",
        "er"
      ],
      [
        "or",
        "ning"
      ],
      [
        "nt",
        "ation"
      ],
      [
        "nt",
        "inue"
      ],
      [
        "ro",
        "ve"
      ],
      [
        "ul",
        "ti"
      ],
      [
        "se",
        "s"
      ],
      [
        "Ġà¤",
        "ª"
      ],
      [
        "Ġà¤",
        "®"
      ],
      [
        "Ġc",
        "on"
      ],
      [
        "Ġc",
        "ur"
      ],
      [
        "Ġc",
        "lo"
      ],
      [
        "ti",
        "ve"
      ],
      [
        "Ġto",
        "day"
      ],
      [
        "Ġf",
        "ai"
      ],
      [
        "Ġf",
        "il"
      ],
      [
        "Ġf",
        "ree"
      ],
      [
        "Ġf",
        "aste"
      ],
      [
        "Ġre",
        "s"
      ],
      [
        "Ġre",
        "search"
      ],
      [
        "Ġre",
        "member"
      ],
      [
        "Ġpro",
        "ces"
      ],
      [
        "Ġpro",
        "gra"
      ],
      [
        "Ġi",
        "mp"
      ],
      [
        "Ġi",
        "dle"
      ],
      [
        "el",
        "og"
      ],
      [
        "si",
        "on"
      ],
      [
        "Ġas",
        "ks"
      ],
      [
        "acti",
        "on"
      ],
      [
        "ate",
        "st"
      ],
      [
        "mp",
        "late"
      ],
      [
        "an",
        "ce"
      ],
      [
        "Ġl",
        "atest"
      ],
      [
        "Ġw",
        "ould"
      ],
      [
        "Ġw",
        "ants"
      ],
      [
        "Ġy",
        "este"
      ],
      [
        "ke",
        "d"
      ],
      [
        "ke",
        "y"
      ],
      [
        "Ġd",
        "ue"
      ],
      [
        "od",
        "ing"
      ],
      [
        "ĠS",
        "ystem"
      ],
      [
        "ĠS",
        "ave"
      ],
      [
        "ĠS",
        "yn"
      ],
      [
        "Ġm",
        "y"
      ],
      [
        "Ġm",
        "ode"
      ],
      [
        "Ġm",
        "orning"
      ],
      [
        "Ġk",
        "a"
      ],
      [
        "ub",
        "inter"
      ],
      [
        "Ġn",
        "e"
      ],
      [
        "Ġn",
        "otes"
      ],
      [
        "à¥ĩ",
        "à¤Ĥ"
      ],
      [
        "ab",
        "s"
      ],
      [
        "li",
        "mit"
      ],
      [
        "mm",
        "ing"
      ],
      [
        "à¤¯",
        "à¤¤"
      ],
      [
        "ang",
        "elog"
      ],
      [
        "Ġt",
        "abs"
      ],
      [
        "Ġrequ",
        "est"
      ],
      [
        "Ġexec",
        "ution"
      ],
      [
        "ct",
        "u"
      ],
      [
        "it",
        "Hub"
      ],
      [
        "ĠF",
        "ast"
      ],
      [
        "ĠW",
        "ould"
      ],
      [
        "Ġb",
        "u"
      ],
      [
        "Ġà¤Ĩà¤",
        "ľ"
      ],
      [
        "Ġch",
        "eck"
      ],
      [
        "Ġch",
        "angelog"
      ],
      [
        "Ġwor",
        "ked"
      ],
      [
        "Ġdo",
        "cume"
      ],
      [
        "ĠR",
        "e"
      ],
      [
        "ĠR",
        "AM"
      ],
      [
        "Ġsave",
        "d"
      ],
      [
        "ark",
        "dow"
      ],
      [
        "Ġà¤¸",
        "à¤¹"
      ],
      [
        "Ġun",
        "use"
      ],
      [
        "Ġun",
        "reach"
      ],
      [
        "modul",
        "es"
      ],
      [
        "ĠG",
        "itHub"
      ],
      [
        "Ġsummar",
        "y"
      ],
      [
        "Ġprojec",
        "t"
      ],
      [
        "Ġdi",
        "rect"
      ],
      [
        "Ġà¤Ĩà¤ª",
        "à¤ķ"
      ],
      [
        "Ġcomp",
        "rehen"
      ],
      [
        "à¥Ĥà¤ģ",
        "à¥¤"
      ],
      [
        "AP",
        "I"
      ],
      [
        "De",
        "le"
      ],
      [
        "Go",
        "od"
      ],
      [
        "ap",
        "ka"
      ],
      [
        "ite",
        "ctu"
      ],
      [
        "pon",
        "se"
      ],
      [
        "Ġro",
        "ot"
      ],
      [
        "thes",
        "ize"
      ],
      [
        "thread",
        "ed"
      ],
      [
        "Ġarch",
        "itectu"
      ],
      [
        "ntinue",
        "d"
      ],
      [
        "Ġcur",
        "rent"
      ],
      [
        "Ġfil",
        "es"
      ],
      [
        "Ġfaste",
        "r"
      ],
      [
        "Ġproces",
        "ses"
      ],
      [
        "Ġprogra",
        "mming"
      ],
      [
        "Ġimp",
        "rove"
      ],
      [
        "Ġyeste",
        "rday"
      ],
      [
        "ĠSyn",
        "thesize"
      ],
      [
        "ubinter",
        "preters"
      ],
      [
        "ĠFast",
        "API"
      ],
      [
        "arkdow",
        "n"
      ],
      [
        "Ġunuse",
        "d"
      ],
      [
        "Ġunreach",
        "able"
      ],
      [
        "Ġdirect",
        "ory"
      ],
      [
        "Ġcomprehen",
        "sion"
      ],
      [
        "%",
        "\"}"
      ],
      [
        "'",
        "m"
      ],
      [
        "'",
        "s"
      ],
      [
        "'",
        "ve"
      ],
      [
        "'",
        "\"}"
      ],
      [
        "'",
        "ll"
      ],
      [
        ")",
        ","
      ],
      [
        ")",
        "."
      ],
      [
        ")",
        ":"
      ],
      [
        ")",
        "**:"
      ],
      [
        "1",
        "00"
      ],
      [
        "2",
        "00"
      ],
      [
        "7",
        "5"
      ],
      [
        "A",
        "G"
      ],
      [
        "A",
        "d"
      ],
      [
        "A",
        "u"
      ],
      [
        "A",
        "apka"
      ],
      [
        "B",
        "rowser"
      ],
      [
        "B",
        "ase"
      ],
      [
        "C",
        "o"
      ],
      [
        "C",
        "on"
      ],
      [
        "E",
        "R"
      ],
      [
        "E",
        "S"
      ],
      [
        "E",
        "T"
      ],
      [
        "E",
        "n"
      ],
      [
        "E",
        "VE"
      ],
      [
        "F",
        "ou"
      ],
      [
        "F",
        "act"
      ],
      [
        "G",
        "H"
      ],
      [
        "G",
        "ot"
      ],
      [
        "H",
        "I"
      ],
      [
        "H",
        "a"
      ],
      [
        "H",
        "e"
      ],
      [
        "I",
        "n"
      ],
      [
        "L",
        "e"
      ],
      [
        "L",
        "VE"
      ],
      [
        "M",
        "er"
      ],
      [
        "M",
        "es"
      ],
      [
        "M",
        "ute"
      ],
      [
        "M",
        "ulti"
      ],
      [
        "N",
        "O"
      ],
      [
        "N",
        "T"
      ],
      [
        "N",
        "aira"
      ],
      [
        "N",
        "av"
      ],
      [
        "N",
        "AM"
      ],
      [
        "O",
        "R"
      ],
      [
        "O",
        "S"
      ],
      [
        "O",
        "p"
      ],
      [
        "O",
        "LVE"
      ],
      [
        "P",
        "lease"
      ],
      [
        "Q",
        "u"
      ],
      [
        "R",
        "L"
      ],
      [
        "R",
        "e"
      ],
      [
        "R",
        "es"
      ],
      [
        "R",
        "ES"
      ],
      [
        "S",
        "T"
      ],
      [
        "S",
        "Y"
      ],
      [
        "S",
        "t"
      ],
      [
        "S",
        "et"
      ],
      [
        "S",
        "ab"
      ],
      [
        "S",
        "AG"
      ],
      [
        "T",
        "e"
      ],
      [
        "U",
        "RL"
      ],
      [
        "U",
        "SAG"
      ],
      [
        "V",
        "er"
      ],
      [
        "W",
        "e"
      ],
      [
        "W",
        "hat"
      ],
      [
        "]",
        ")"
      ],
      [
        "`",
        ","
      ],
      [
        "a",
        "a"
      ],
      [
        "a",
        "in"
      ],
      [
        "a",
        "sta"
      ],
      [
        "a",
        "nding"
      ],
      [
        "a",
        "ad"
      ],
      [
        "a",
        "use"
      ],
      [
        "a",
        "ya"
      ],
      [
        "b",
        "ute"
      ],
      [
        "c",
        "k"
      ],
      [
        "c",
        "u"
      ],
      [
        "c",
        "ation"
      ],
      [
        "c",
        "li"
      ],
      [
        "c",
        "lu"
      ],
      [
        "c",
        "om"
      ],
      [
        "c",
        "ri"
      ],
      [
        "d",
        "j"
      ],
      [
        "d",
        "u"
      ],
      [
        "d",
        "er"
      ],
      [
        "d",
        "es"
      ],
      [
        "d",
        "ate"
      ],
      [
        "d",
        "ation"
      ],
      [
        "d",
        "ark"
      ],
      [
        "d",
        "ings"
      ],
      [
        "e",
        "b"
      ],
      [
        "e",
        "f"
      ],
      [
        "f",
        "f"
      ],
      [
        "f",
        "asta"
      ],
      [
        "g",
        "es"
      ],
      [
        "g",
        "ge"
      ],
      [
        "g",
        "ard"
      ],
      [
        "g",
        "ithub"
      ],
      [
        "h",
        "a"
      ],
      [
        "h",
        "el"
      ],
      [
        "h",
        "ost"
      ],
      [
        "h",
        "ance"
      ],
      [
        "i",
        "me"
      ],
      [
        "i",
        "ld"
      ],
      [
        "i",
        "gate"
      ],
      [
        "i",
        "dation"
      ],
      [
        "k",
        "ul"
      ],
      [
        "k",
        "es"
      ],
      [
        "l",
        "f"
      ],
      [
        "l",
        "li"
      ],
      [
        "m",
        "o"
      ],
      [
        "m",
        "me"
      ],
      [
        "m",
        "ou"
      ],
      [
        "m",
        "ation"
      ],
      [
        "m",
        "iz"
      ],
      [
        "n",
        "s"
      ],
      [
        "n",
        "y"
      ],
      [
        "n",
        "er"
      ],
      [
        "n",
        "aira"
      ],
      [
        "n",
        "ec"
      ],
      [
        "n",
        "ot"
      ],
      [
        "n",
        "otes"
      ],
      [
        "n",
        "om"
      ],
      [
        "n",
        "clu"
      ],
      [
        "o",
        "k"
      ],
      [
        "o",
        "th"
      ],
      [
        "o",
        "ti"
      ],
      [
        "o",
        "form"
      ],
      [
        "o",
        "ntinued"
      ],
      [
        "o",
        "cu"
      ],
      [
        "p",
        "e"
      ],
      [
        "p",
        "p"
      ],
      [
        "p",
        "ol"
      ],
      [
        "p",
        "ac"
      ],
      [
        "p",
        "le"
      ],
      [
        "p",
        "el"
      ],
      [
        "p",
        "ec"
      ],
      [
        "p",
        "ython"
      ],
      [
        "p",
        "tion"
      ],
      [
        "p",
        "hi"
      ],
      [
        "r",
        "u"
      ],
      [
        "r",
        "uc"
      ],
      [
        "r",
        "is"
      ],
      [
        "r",
        "ings"
      ],
      [
        "r",
        "mation"
      ],
      [
        "s",
        "ing"
      ],
      [
        "s",
        "sa"
      ],
      [
        "t",
        "u"
      ],
      [
        "t",
        "y"
      ],
      [
        "t",
        "ro"
      ],
      [
        "t",
        "ur"
      ],
      [
        "t",
        "rings"
      ],
      [
        "u",
        "st"
      ],
      [
        "u",
        "ch"
      ],
      [
        "u",
        "di"
      ],
      [
        "u",
        "gge"
      ],
      [
        "w",
        "o"
      ],
      [
        "w",
        "or"
      ],
      [
        "y",
        "nt"
      ],
      [
        "ª",
        "à¤¯"
      ],
      [
        "¬",
        "à¤¹"
      ],
      [
        "Ġ",
        "&"
      ],
      [
        "Ġ",
        "/"
      ],
      [
        "Ġ",
        "="
      ],
      [
        "Ġ",
        "x"
      ],
      [
        "Ġ",
        "|"
      ],
      [
        "Ġ",
        "ou"
      ],
      [
        "Ġ",
        "ra"
      ],
      [
        "Ġ",
        "ge"
      ],
      [
        "Ġ",
        "val"
      ],
      [
        "Ġ",
        "value"
      ],
      [
        "Ġ",
        "output"
      ],
      [
        "Ġ",
        "rou"
      ],
      [
        "Ġ",
        "50"
      ],
      [
        "Ġ",
        "88"
      ],
      [
        "Ġ",
        "key"
      ],
      [
        "Ġ",
        "Dele"
      ],
      [
        "Ġ",
        "Browser"
      ],
      [
        "Ġ",
        "EVE"
      ],
      [
        "Ġ",
        "Le"
      ],
      [
        "Ġ",
        "OS"
      ],
      [
        "Ġ",
        "Qu"
      ],
      [
        "Ġ",
        "URL"
      ],
      [
        "Ġ",
        "Ver"
      ],
      [
        "ħ",
        "à¤"
      ],
      [
        "Ķ",
        "à¤°"
      ],
      [
        "te",
        "d"
      ],
      [
        "te",
        "al"
      ],
      [
        "te",
        "mp"
      ],
      [
        "te",
        "ps"
      ],
      [
        "te",
        "lli"
      ],
      [
        "à¤",
        "¶"
      ],
      [
        "à¤",
        "Ĺ"
      ],
      [
        "à¤",
        "Ľ"
      ],
      [
        "à¤",
        "Ł"
      ],
      [
        "à¤",
        "ªà¤¯"
      ],
      [
        "re",
        "at"
      ],
      [
        "re",
        "ation"
      ],
      [
        "in",
        "e"
      ],
      [
        "in",
        "di"
      ],
      [
        "in",
        "dings"
      ],
      [
        "Ġ\"",
        "["
      ],
      [
        "Ġa",
        "n"
      ],
      [
        "Ġa",
        "tt"
      ],
      [
        "Ġa",
        "ge"
      ],
      [
        "Ġa",
        "ur"
      ],
      [
        "Ġa",
        "gent"
      ],
      [
        "Ġa",
        "aj"
      ],
      [
        "Ġa",
        "dj"
      ],
      [
        "Ġa",
        "pp"
      ],
      [
        "Ġa",
        "udi"
      ],
      [
        "er",
        "ce"
      ],
      [
        "er",
        "form"
      ],
      [
        "me",
        "nts"
      ],
      [
        "me",
        "ntation"
      ],
      [
        "Ġs",
        "ing"
      ],
      [
        "Ġs",
        "uccess"
      ],
      [
        "Ġs",
        "creenshot"
      ],
      [
        "Ġs",
        "tep"
      ],
      [
        "Ġs",
        "earch"
      ],
      [
        "Ġs",
        "ubinterpreters"
      ],
      [
        "Ġs",
        "aa"
      ],
      [
        "Ġs",
        "mo"
      ],
      [
        "Ġs",
        "pec"
      ],
      [
        "Ġs",
        "ynt"
      ],
      [
        "Ġs",
        "teps"
      ],
      [
        "ing",
        "li"
      ],
      [
        "at",
        "ast"
      ],
      [
        "ol",
        "ve"
      ],
      [
        "ol",
        "ate"
      ],
      [
        "to",
        "nom"
      ],
      [
        "ar",
        "ting"
      ],
      [
        "nt",
        "ime"
      ],
      [
        "ro",
        "phi"
      ],
      [
        "ul",
        "t"
      ],
      [
        "ul",
        "ate"
      ],
      [
        "ste",
        "p"
      ],
      [
        "se",
        "lf"
      ],
      [
        "Ġth",
        "a"
      ],
      [
        "Ġth",
        "od"
      ],
      [
        "Ġth",
        "is"
      ],
      [
        "nd",
        "a"
      ],
      [
        "à¥",
        "ģ"
      ],
      [
        "à¥",
        "ĥ"
      ],
      [
        "à¥",
        "ī"
      ],
      [
        "Ġh",
        "o"
      ],
      [
        "Ġh",
        "ave"
      ],
      [
        "Ġh",
        "ttps"
      ],
      [
        "Ġh",
        "ost"
      ],
      [
        "Ġh",
        "ain"
      ],
      [
        "Ġp",
        "c"
      ],
      [
        "Ġp",
        "lease"
      ],
      [
        "Ġp",
        "erce"
      ],
      [
        "Ġà¤",
        "¨"
      ],
      [
        "Ġà¤",
        "¬à¤¹"
      ],
      [
        "Ġà¤",
        "ħà¤"
      ],
      [
        "Ġà¤",
        "Ķà¤°"
      ],
      [
        "Ġc",
        "an"
      ],
      [
        "Ġc",
        "ould"
      ],
      [
        "Ġc",
        "ode"
      ],
      [
        "Ġc",
        "reate"
      ],
      [
        "Ġc",
        "oding"
      ],
      [
        "Ġc",
        "ause"
      ],
      [
        "Ġc",
        "reation"
      ],
      [
        "Ġc",
        "atast"
      ],
      [
        "ti",
        "miz"
      ],
      [
        "ai",
        "sa"
      ],
      [
        "ful",
        "ly"
      ],
      [
        "ve",
        "l"
      ],
      [
        "Ġto",
        "p"
      ],
      [
        "Ġto",
        "pic"
      ],
      [
        "Ġf",
        "ile"
      ],
      [
        "Ġf",
        "ocu"
      ],
      [
        "Ġf",
        "indings"
      ],
      [
        "ght",
        "s"
      ],
      [
        "Ġre",
        "al"
      ],
      [
        "Ġre",
        "call"
      ],
      [
        "Ġre",
        "ad"
      ],
      [
        "Ġre",
        "gard"
      ],
      [
        "Ġre",
        "tur"
      ],
      [
        "le",
        "d"
      ],
      [
        "ĠA",
        "gent"
      ],
      [
        "ĠA",
        "aj"
      ],
      [
        "ĠA",
        "apka"
      ],
      [
        "ĠA",
        "ny"
      ],
      [
        "Ġpro",
        "cess"
      ],
      [
        "Ġpro",
        "fi"
      ],
      [
        "Ġi",
        "t"
      ],
      [
        "Ġi",
        "mple"
      ],
      [
        "Ġi",
        "mme"
      ],
      [
        "ĠN",
        "ati"
      ],
      [
        "Ġo",
        "k"
      ],
      [
        "Ġo",
        "ff"
      ],
      [
        "tool",
        "s"
      ],
      [
        "Ġop",
        "en"
      ],
      [
        "Ġop",
        "timiz"
      ],
      [
        "ch",
        "eck"
      ],
      [
        "ate",
        "ly"
      ],
      [
        "mp",
        "t"
      ],
      [
        "Ġin",
        "form"
      ],
      [
        "Ġin",
        "tro"
      ],
      [
        "Ġin",
        "telli"
      ],
      [
        "ter",
        "preter"
      ],
      [
        "qu",
        "ired"
      ],
      [
        "Ġthe",
        "m"
      ],
      [
        "Ġis",
        "oform"
      ],
      [
        "Ġis",
        "olate"
      ],
      [
        "Ġw",
        "e"
      ],
      [
        "Ġw",
        "il"
      ],
      [
        "Ġy",
        "aad"
      ],
      [
        "Ġd",
        "et"
      ],
      [
        "Ġd",
        "ark"
      ],
      [
        "Ġd",
        "est"
      ],
      [
        "Ġd",
        "ef"
      ],
      [
        "od",
        "el"
      ],
      [
        "à¤¾",
        "!"
      ],
      [
        "Ġst",
        "able"
      ],
      [
        "Ġst",
        "and"
      ],
      [
        "ĠS",
        "ummar"
      ],
      [
        "ĠS",
        "earch"
      ],
      [
        "ĠS",
        "ubinterpreters"
      ],
      [
        "ĠS",
        "trings"
      ],
      [
        "ĠS",
        "ugge"
      ],
      [
        "Ġm",
        "ute"
      ],
      [
        "Ġm",
        "ax"
      ],
      [
        "Ġm",
        "odul"
      ],
      [
        "Ġm",
        "arkdown"
      ],
      [
        "Ġm",
        "odel"
      ],
      [
        "à¤°",
        "à¤¹"
      ],
      [
        "res",
        "ponse"
      ],
      [
        "ery",
        "ing"
      ],
      [
        "pi",
        "pel"
      ],
      [
        "Ġk",
        "is"
      ],
      [
        "Ġk",
        "ya"
      ],
      [
        "Ġk",
        "uch"
      ],
      [
        "Ġk",
        "aisa"
      ],
      [
        "Ġu",
        "ser"
      ],
      [
        "Ġu",
        "sage"
      ],
      [
        "ation",
        "s"
      ],
      [
        "ce",
        "d"
      ],
      [
        "et",
        "wor"
      ],
      [
        "uc",
        "tu"
      ],
      [
        "Ġn",
        "ot"
      ],
      [
        "Ġn",
        "ow"
      ],
      [
        "Ġn",
        "oti"
      ],
      [
        "Ġn",
        "etwor"
      ],
      [
        "Ġte",
        "st"
      ],
      [
        "Ġte",
        "xt"
      ],
      [
        "Ġte",
        "mplate"
      ],
      [
        "à¥ĩ",
        "!"
      ],
      [
        "à¥ĩ",
        ","
      ],
      [
        "à¥ĩ",
        "?"
      ],
      [
        "Ġà¤ķ",
        "à¤°"
      ],
      [
        "li",
        "kes"
      ],
      [
        "li",
        "ghts"
      ],
      [
        "mm",
        "and"
      ],
      [
        "vi",
        "ces"
      ],
      [
        "vi",
        "der"
      ],
      [
        "à¤¯",
        "à¤°"
      ],
      [
        "as",
        "yn"
      ],
      [
        "ed",
        "ed"
      ],
      [
        "Ġt",
        "wo"
      ],
      [
        "Ġon",
        "e"
      ],
      [
        "Ġpref",
        "eren"
      ],
      [
        "Ġrequ",
        "ired"
      ],
      [
        "il",
        "t"
      ],
      [
        "il",
        "kul"
      ],
      [
        "ĠF",
        "orm"
      ],
      [
        "ĠF",
        "ree"
      ],
      [
        "ĠF",
        "ile"
      ],
      [
        "ĠH",
        "ow"
      ],
      [
        "ĠH",
        "and"
      ],
      [
        "ĠH",
        "anding"
      ],
      [
        "ĠH",
        "indi"
      ],
      [
        "ĠH",
        "ingli"
      ],
      [
        "ĠW",
        "hi"
      ],
      [
        "ĠW",
        "hat"
      ],
      [
        "ĠW",
        "eb"
      ],
      [
        "Ġb",
        "e"
      ],
      [
        "Ġb",
        "ut"
      ],
      [
        "Ġb",
        "ilkul"
      ],
      [
        "Ġg",
        "aya"
      ],
      [
        "Ġg",
        "reat"
      ],
      [
        "à¤¨",
        "à¤¶"
      ],
      [
        "Ġà¤¹",
        "à¤®"
      ],
      [
        "Ġch",
        "al"
      ],
      [
        "Ġco",
        "ver"
      ],
      [
        "Ġco",
        "ntinued"
      ],
      [
        "Ġrepo",
        "s"
      ],
      [
        "Ġli",
        "st"
      ],
      [
        "Ġli",
        "mit"
      ],
      [
        "Ġwor",
        "k"
      ],
      [
        "Ġwor",
        "ld"
      ],
      [
        "Ġwor",
        "ks"
      ],
      [
        "Ġdo",
        "ing"
      ],
      [
        "Ġstr",
        "ing"
      ],
      [
        "Ġstr",
        "ings"
      ],
      [
        "Ġstr",
        "uctu"
      ],
      [
        "fi",
        "rmation"
      ],
      [
        "ĠC",
        "Python"
      ],
      [
        "ĠC",
        "reate"
      ],
      [
        "ĠC",
        "oding"
      ],
      [
        "ĠC",
        "ontinued"
      ],
      [
        "Ġme",
        "ssa"
      ],
      [
        "ĠTool",
        "Res"
      ],
      [
        "Ġhigh",
        "lights"
      ],
      [
        "Ġexecute",
        "d"
      ],
      [
        "di",
        "ately"
      ],
      [
        "modul",
        "e"
      ],
      [
        "ĠG",
        "ET"
      ],
      [
        "ĠI",
        "nclu"
      ],
      [
        "ĠM",
        "EM"
      ],
      [
        "ĠM",
        "ulti"
      ],
      [
        "ĠM",
        "arkdown"
      ],
      [
        "Ġsummar",
        "ize"
      ],
      [
        "ach",
        "ed"
      ],
      [
        "Ġà¤¤",
        "à¤°à¤¹"
      ],
      [
        "Ġprojec",
        "ts"
      ],
      [
        "Ġinter",
        "nal"
      ],
      [
        "Ġinter",
        "preters"
      ],
      [
        "Ġinter",
        "pol"
      ],
      [
        "Ġdi",
        "ct"
      ],
      [
        "Ġkar",
        "na"
      ],
      [
        "Ġup",
        "time"
      ],
      [
        "Ġup",
        "date"
      ],
      [
        "à¥Īà¤Ĥ",
        "?"
      ],
      [
        "Ġcomp",
        "os"
      ],
      [
        "%)",
        "."
      ],
      [
        "de",
        "f"
      ],
      [
        "ifi",
        "ed"
      ],
      [
        "ifi",
        "cation"
      ],
      [
        "lu",
        "re"
      ],
      [
        "por",
        "t"
      ],
      [
        "por",
        "ts"
      ],
      [
        "pro",
        "mpt"
      ],
      [
        "pro",
        "vider"
      ],
      [
        "ri",
        "bute"
      ],
      [
        "ĠP",
        "lan"
      ],
      [
        "ĠP",
        "erform"
      ],
      [
        "Ġver",
        "ify"
      ],
      [
        "Ġver",
        "ified"
      ],
      [
        "Ġac",
        "tion"
      ],
      [
        "Ġac",
        "tive"
      ],
      [
        "Ġat",
        "temp"
      ],
      [
        "Ġser",
        "ver"
      ],
      [
        "Ġser",
        "vices"
      ],
      [
        "Ġà¤ª",
        "à¤°"
      ],
      [
        "Ġcon",
        "text"
      ],
      [
        "Ġcon",
        "nec"
      ],
      [
        "Ġclo",
        "se"
      ],
      [
        "Ġclo",
        "sing"
      ],
      [
        "Ġfai",
        "led"
      ],
      [
        "Ġfai",
        "lure"
      ],
      [
        "Ġres",
        "ponse"
      ],
      [
        "Ġres",
        "olve"
      ],
      [
        "Ġremember",
        "ing"
      ],
      [
        "key",
        "board"
      ],
      [
        "Ġka",
        "m"
      ],
      [
        "Ġne",
        "w"
      ],
      [
        "Ġne",
        "eded"
      ],
      [
        "à¥ĩà¤Ĥ",
        "à¥¤"
      ],
      [
        "Ġrequest",
        "s"
      ],
      [
        "Ġbu",
        "ild"
      ],
      [
        "Ġbu",
        "ilt"
      ],
      [
        "Ġdocume",
        "nt"
      ],
      [
        "Ġdocume",
        "ntation"
      ],
      [
        "ĠRe",
        "quired"
      ],
      [
        "ĠRe",
        "port"
      ],
      [
        "Dele",
        "te"
      ],
      [
        "Ġarchitectu",
        "re"
      ],
      [
        "Ġarchitectu",
        "res"
      ],
      [
        "Ġcurrent",
        "ly"
      ],
      [
        "Ġimprove",
        "d"
      ],
      [
        "Ġimprove",
        "ments"
      ],
      [
        "Ad",
        "d"
      ],
      [
        "Au",
        "tonom"
      ],
      [
        "Base",
        "d"
      ],
      [
        "Co",
        "mmand"
      ],
      [
        "Con",
        "firmation"
      ],
      [
        "ER",
        "R"
      ],
      [
        "En",
        "hance"
      ],
      [
        "Fou",
        "nd"
      ],
      [
        "HI",
        "GH"
      ],
      [
        "Ha",
        "an"
      ],
      [
        "He",
        "y"
      ],
      [
        "In",
        "terpreter"
      ],
      [
        "Mer",
        "a"
      ],
      [
        "Mes",
        "sage"
      ],
      [
        "NO",
        "T"
      ],
      [
        "Nav",
        "igate"
      ],
      [
        "NAM",
        "E"
      ],
      [
        "OR",
        "Y"
      ],
      [
        "Op",
        "en"
      ],
      [
        "OLVE",
        "D"
      ],
      [
        "Re",
        "search"
      ],
      [
        "RES",
        "OLVED"
      ],
      [
        "ST",
        "EM"
      ],
      [
        "SY",
        "STEM"
      ],
      [
        "St",
        "arting"
      ],
      [
        "Te",
        "mplate"
      ],
      [
        "USAG",
        "E"
      ],
      [
        "cli",
        "ck"
      ],
      [
        "cri",
        "ption"
      ],
      [
        "du",
        "ces"
      ],
      [
        "des",
        "cription"
      ],
      [
        "fasta",
        "pi"
      ],
      [
        "hel",
        "lo"
      ],
      [
        "mou",
        "se"
      ],
      [
        "ner",
        "ate"
      ],
      [
        "oth",
        "ly"
      ],
      [
        "pac",
        "e"
      ],
      [
        "ru",
        "ntime"
      ],
      [
        "ruc",
        "tive"
      ],
      [
        "ris",
        "k"
      ],
      [
        "ty",
        "pe"
      ],
      [
        "Ġou",
        "r"
      ],
      [
        "Ġra",
        "ha"
      ],
      [
        "Ġge",
        "nerate"
      ],
      [
        "Ġval",
        "idation"
      ],
      [
        "Ġrou",
        "te"
      ],
      [
        "ĠDele",
        "ting"
      ],
      [
        "ĠEVE",
        "NT"
      ],
      [
        "ĠLe",
        "vel"
      ],
      [
        "ĠQu",
        "erying"
      ],
      [
        "ĠVer",
        "ify"
      ],
      [
        "Ġatt",
        "ribute"
      ],
      [
        "Ġage",
        "nda"
      ],
      [
        "Ġadj",
        "ust"
      ],
      [
        "Ġaudi",
        "o"
      ],
      [
        "Ġsing",
        "le"
      ],
      [
        "Ġsuccess",
        "fully"
      ],
      [
        "Ġsaa",
        "re"
      ],
      [
        "Ġsmo",
        "othly"
      ],
      [
        "Ġspec",
        "ification"
      ],
      [
        "Ġsynt",
        "ax"
      ],
      [
        "rophi",
        "c"
      ],
      [
        "Ġthod",
        "a"
      ],
      [
        "Ġperce",
        "nt"
      ],
      [
        "Ġà¤ħà¤",
        "ļ"
      ],
      [
        "Ġcan",
        "not"
      ],
      [
        "Ġcatast",
        "rophic"
      ],
      [
        "Ġfocu",
        "s"
      ],
      [
        "Ġread",
        "y"
      ],
      [
        "Ġregard",
        "ing"
      ],
      [
        "Ġretur",
        "ns"
      ],
      [
        "Ġprofi",
        "le"
      ],
      [
        "Ġimple",
        "mentation"
      ],
      [
        "Ġimme",
        "diately"
      ],
      [
        "ĠNati",
        "ve"
      ],
      [
        "Ġoptimiz",
        "ations"
      ],
      [
        "Ġinform",
        "ation"
      ],
      [
        "Ġintro",
        "duces"
      ],
      [
        "Ġintelli",
        "gent"
      ],
      [
        "Ġisoform",
        "at"
      ],
      [
        "Ġisolate",
        "d"
      ],
      [
        "Ġwil",
        "l"
      ],
      [
        "Ġdet",
        "ached"
      ],
      [
        "Ġdest",
        "ructive"
      ],
      [
        "Ġstand",
        "ard"
      ],
      [
        "ĠSummar",
        "ize"
      ],
      [
        "ĠSugge",
        "st"
      ],
      [
        "Ġmute",
        "d"
      ],
      [
        "Ġmodul",
        "ar"
      ],
      [
        "pipel",
        "ine"
      ],
      [
        "Ġnoti",
        "ced"
      ],
      [
        "Ġnetwor",
        "k"
      ],
      [
        "asyn",
        "c"
      ],
      [
        "Ġpreferen",
        "ces"
      ],
      [
        "ĠForm",
        "ulate"
      ],
      [
        "ĠHingli",
        "sh"
      ],
      [
        "ĠWhi",
        "ch"
      ],
      [
        "Ġcover",
        "age"
      ],
      [
        "Ġworks",
        "pace"
      ],
      [
        "Ġstructu",
        "red"
      ],
      [
        "Ġmessa",
        "ges"
      ],
      [
        "ĠToolRes",
        "ult"
      ],
      [
        "ĠInclu",
        "de"
      ],
      [
        "ĠMEM",
        "ORY"
      ],
      [
        "ĠMulti",
        "ple"
      ],
      [
        "Ġinterpol",
        "ation"
      ],
      [
        "Ġupdate",
        "s"
      ],
      [
        "Ġcompos",
        "able"
      ],
      [
        "ĠPerform",
        "ance"
      ],
      [
        "Ġattemp",
        "ted"
      ],
      [
        "Ġconnec",
        "tion"
      ],
      [
        "Ġresolve",
        "d"
      ],
      [
        "Autonom",
        "y"
      ],
      [
        "Enhance",
        "d"
      ],
      [
        "Ġattribute",
        "s"
      ]
    ]
  }
}